{
    "\u0000": 0,
    "\u0001": 1,
    "\u0002": 2,
    "\u0003": 3,
    "\u0004": 4,
    "\u0005": 5,
    "\u0006": 6,
    "\u0007": 7,
    "\b": 8,
    "\t": 9,
    "\n": 10,
    "\u000b": 11,
    "\f": 12,
    "\r": 13,
    "\u000e": 14,
    "\u000f": 15,
    "\u0010": 16,
    "\u0011": 17,
    "\u0012": 18,
    "\u0013": 19,
    "\u0014": 20,
    "\u0015": 21,
    "\u0016": 22,
    "\u0017": 23,
    "\u0018": 24,
    "\u0019": 25,
    "\u001a": 26,
    "\u001b": 27,
    "\u001c": 28,
    "\u001d": 29,
    "\u001e": 30,
    "\u001f": 31,
    " ": 32,
    "!": 33,
    "\"": 34,
    "#": 35,
    "$": 36,
    "%": 37,
    "&": 38,
    "'": 39,
    "(": 40,
    ")": 41,
    "*": 42,
    "+": 43,
    ",": 44,
    "-": 45,
    ".": 46,
    "/": 47,
    "0": 48,
    "1": 49,
    "2": 50,
    "3": 51,
    "4": 52,
    "5": 53,
    "6": 54,
    "7": 55,
    "8": 56,
    "9": 57,
    ":": 58,
    ";": 59,
    "<": 60,
    "=": 61,
    ">": 62,
    "?": 63,
    "@": 64,
    "A": 65,
    "B": 66,
    "C": 67,
    "D": 68,
    "E": 69,
    "F": 70,
    "G": 71,
    "H": 72,
    "I": 73,
    "J": 74,
    "K": 75,
    "L": 76,
    "M": 77,
    "N": 78,
    "O": 79,
    "P": 80,
    "Q": 81,
    "R": 82,
    "S": 83,
    "T": 84,
    "U": 85,
    "V": 86,
    "W": 87,
    "X": 88,
    "Y": 89,
    "Z": 90,
    "[": 91,
    "\\": 92,
    "]": 93,
    "^": 94,
    "_": 95,
    "`": 96,
    "a": 97,
    "b": 98,
    "c": 99,
    "d": 100,
    "e": 101,
    "f": 102,
    "g": 103,
    "h": 104,
    "i": 105,
    "j": 106,
    "k": 107,
    "l": 108,
    "m": 109,
    "n": 110,
    "o": 111,
    "p": 112,
    "q": 113,
    "r": 114,
    "s": 115,
    "t": 116,
    "u": 117,
    "v": 118,
    "w": 119,
    "x": 120,
    "y": 121,
    "z": 122,
    "{": 123,
    "|": 124,
    "}": 125,
    "~": 126,
    "": 127,
    "": 128,
    "": 129,
    "": 130,
    "": 131,
    "": 132,
    "": 133,
    "": 134,
    "": 135,
    "": 136,
    "": 137,
    "": 138,
    "": 139,
    "": 140,
    "": 141,
    "": 142,
    "": 143,
    "": 144,
    "": 145,
    "": 146,
    "": 147,
    "": 148,
    "": 149,
    "": 150,
    "": 151,
    "": 152,
    "": 153,
    "": 154,
    "": 155,
    "": 156,
    "": 157,
    "": 158,
    "": 159,
    " ": 160,
    "¡": 161,
    "¢": 162,
    "£": 163,
    "¤": 164,
    "¥": 165,
    "¦": 166,
    "§": 167,
    "¨": 168,
    "©": 169,
    "ª": 170,
    "«": 171,
    "¬": 172,
    "­": 173,
    "®": 174,
    "¯": 175,
    "°": 176,
    "±": 177,
    "²": 178,
    "³": 179,
    "´": 180,
    "µ": 181,
    "¶": 182,
    "·": 183,
    "¸": 184,
    "¹": 185,
    "º": 186,
    "»": 187,
    "¼": 188,
    "½": 189,
    "¾": 190,
    "¿": 191,
    "À": 192,
    "Á": 193,
    "Â": 194,
    "Ã": 195,
    "Ä": 196,
    "Å": 197,
    "Æ": 198,
    "Ç": 199,
    "È": 200,
    "É": 201,
    "Ê": 202,
    "Ë": 203,
    "Ì": 204,
    "Í": 205,
    "Î": 206,
    "Ï": 207,
    "Ð": 208,
    "Ñ": 209,
    "Ò": 210,
    "Ó": 211,
    "Ô": 212,
    "Õ": 213,
    "Ö": 214,
    "×": 215,
    "Ø": 216,
    "Ù": 217,
    "Ú": 218,
    "Û": 219,
    "Ü": 220,
    "Ý": 221,
    "Þ": 222,
    "ß": 223,
    "à": 224,
    "á": 225,
    "â": 226,
    "ã": 227,
    "ä": 228,
    "å": 229,
    "æ": 230,
    "ç": 231,
    "è": 232,
    "é": 233,
    "ê": 234,
    "ë": 235,
    "ì": 236,
    "í": 237,
    "î": 238,
    "ï": 239,
    "ð": 240,
    "ñ": 241,
    "ò": 242,
    "ó": 243,
    "ô": 244,
    "õ": 245,
    "ö": 246,
    "÷": 247,
    "ø": 248,
    "ù": 249,
    "ú": 250,
    "û": 251,
    "ü": 252,
    "ý": 253,
    "þ": 254,
    "ÿ": 255,
    "<|endoftext|>": 256,
    " t": 257,
    "he": 258,
    " a": 259,
    " s": 260,
    " w": 261,
    "nd": 262,
    " the": 263,
    "ed": 264,
    " b": 265,
    " to": 266,
    " and": 267,
    " h": 268,
    " f": 269,
    "in": 270,
    " T": 271,
    " wa": 272,
    "re": 273,
    "it": 274,
    "ou": 275,
    " l": 276,
    " d": 277,
    " c": 278,
    " p": 279,
    "ay": 280,
    " m": 281,
    "er": 282,
    " was": 283,
    "om": 284,
    " The": 285,
    " he": 286,
    "is": 287,
    " n": 288,
    "ar": 289,
    "im": 290,
    "on": 291,
    " sa": 292,
    "id": 293,
    "ll": 294,
    " ha": 295,
    " g": 296,
    "at": 297,
    "ing": 298,
    " S": 299,
    "ot": 300,
    "en": 301,
    "an": 302,
    "le": 303,
    "or": 304,
    "ir": 305,
    "am": 306,
    "et": 307,
    " H": 308,
    " it": 309,
    " th": 310,
    "ig": 311,
    " They": 312,
    " in": 313,
    "il": 314,
    " pl": 315,
    " He": 316,
    " \"": 317,
    "ow": 318,
    "ri": 319,
    "ver": 320,
    "ut": 321,
    " be": 322,
    " u": 323,
    " said": 324,
    " play": 325,
    "ith": 326,
    " day": 327,
    "pp": 328,
    " with": 329,
    "On": 330,
    " o": 331,
    " y": 332,
    "oo": 333,
    "ked": 334,
    " r": 335,
    " her": 336,
    "ce": 337,
    " I": 338,
    " She": 339,
    "ld": 340,
    " Tim": 341,
    " his": 342,
    " st": 343,
    "ke": 344,
    " e": 345,
    " big": 346,
    "nt": 347,
    "ck": 348,
    " you": 349,
    "very": 350,
    "st": 351,
    "ve": 352,
    "end": 353,
    " on": 354,
    "un": 355,
    " happ": 356,
    "riend": 357,
    " friend": 358,
    "all": 359,
    "ily": 360,
    " L": 361,
    " they": 362,
    " we": 363,
    " had": 364,
    " not": 365,
    " up": 366,
    " li": 367,
    "her": 368,
    " want": 369,
    " of": 370,
    "ad": 371,
    "itt": 372,
    "se": 373,
    " B": 374,
    " do": 375,
    " happy": 376,
    " M": 377,
    "ent": 378,
    " very": 379,
    "es": 380,
    " that": 381,
    " saw": 382,
    "One": 383,
    "'s": 384,
    "ould": 385,
    " for": 386,
    " sh": 387,
    " mom": 388,
    "ittle": 389,
    " so": 390,
    " little": 391,
    " she": 392,
    "ime": 393,
    " ne": 394,
    " nam": 395,
    "ch": 396,
    ".\"": 397,
    " time": 398,
    "ound": 399,
    " k": 400,
    " there": 401,
    " named": 402,
    " sm": 403,
    " bo": 404,
    " Lily": 405,
    " were": 406,
    " wanted": 407,
    "out": 408,
    " but": 409,
    "The": 410,
    " friends": 411,
    "ved": 412,
    " Tom": 413,
    "ht": 414,
    "!\"": 415,
    "ird": 416,
    "el": 417,
    "ake": 418,
    "al": 419,
    " bird": 420,
    " an": 421,
    "ome": 422,
    "ug": 423,
    " too": 424,
    " It": 425,
    "ide": 426,
    " wh": 427,
    " went": 428,
    "Once": 429,
    " hel": 430,
    "ue": 431,
    " all": 432,
    " is": 433,
    " help": 434,
    " loo": 435,
    " lo": 436,
    " A": 437,
    " upon": 438,
    "ter": 439,
    "ry": 440,
    "ore": 441,
    "get": 442,
    " fun": 443,
    "ill": 444,
    "ind": 445,
    " toy": 446,
    "ame": 447,
    " as": 448,
    " j": 449,
    " at": 450,
    " did": 451,
    "ra": 452,
    "gether": 453,
    "ur": 454,
    " re": 455,
    " together": 456,
    " se": 457,
    "ack": 458,
    " cat": 459,
    " tre": 460,
    "ly": 461,
    "ood": 462,
    "ic": 463,
    " dog": 464,
    "ted": 465,
    " could": 466,
    " can": 467,
    " their": 468,
    "ard": 469,
    "ark": 470,
    "ec": 471,
    " gir": 472,
    " him": 473,
    " played": 474,
    " girl": 475,
    "?\"": 476,
    "way": 477,
    " ball": 478,
    " go": 479,
    "my": 480,
    " ro": 481,
    "hed": 482,
    " out": 483,
    " are": 484,
    "ain": 485,
    " kn": 486,
    "'t": 487,
    " le": 488,
    " fr": 489,
    "hen": 490,
    " them": 491,
    "um": 492,
    "ax": 493,
    " sad": 494,
    " tree": 495,
    "ul": 496,
    " boy": 497,
    " cl": 498,
    " have": 499,
    "other": 500,
    " man": 501,
    " loved": 502,
    " looked": 503,
    "oug": 504,
    " found": 505,
    " sp": 506,
    " star": 507,
    "hing": 508,
    "one": 509,
    " Sue": 510,
    " sc": 511,
    " back": 512,
    " Max": 513,
    "own": 514,
    " like": 515,
    "are": 516,
    " me": 517,
    "side": 518,
    "ful": 519,
    " bec": 520,
    "ight": 521,
    "ong": 522,
    " park": 523,
    " car": 524,
    " would": 525,
    "elt": 526,
    " One": 527,
    "op": 528,
    " liked": 529,
    "round": 530,
    " make": 531,
    " la": 532,
    " felt": 533,
    "You": 534,
    " see": 535,
    " W": 536,
    " fa": 537,
    "ell": 538,
    "omet": 539,
    " But": 540,
    "ouse": 541,
    " no": 542,
    " new": 543,
    " asked": 544,
    "ag": 545,
    " Ben": 546,
    "ared": 547,
    "ice": 548,
    " started": 549,
    " Sam": 550,
    " came": 551,
    " al": 552,
    "iled": 553,
    " other": 554,
    "ought": 555,
    " somet": 556,
    " ag": 557,
    " good": 558,
    " small": 559,
    "ss": 560,
    " say": 561,
    " br": 562,
    " smiled": 563,
    "ade": 564,
    "ings": 565,
    "ried": 566,
    "ob": 567,
    "pot": 568,
    " ex": 569,
    " away": 570,
    " wor": 571,
    " find": 572,
    " put": 573,
    " something": 574,
    "ty": 575,
    " made": 576,
    " what": 577,
    " co": 578,
    " home": 579,
    "ened": 580,
    " thought": 581,
    "ia": 582,
    " from": 583,
    " playing": 584,
    " wal": 585,
    "ook": 586,
    " every": 587,
    " mu": 588,
    "uc": 589,
    "ach": 590,
    " ran": 591,
    " Spot": 592,
    " J": 593,
    "arn": 594,
    "ile": 595,
    " F": 596,
    "ie": 597,
    " some": 598,
    "dd": 599,
    " house": 600,
    " again": 601,
    "ave": 602,
    " down": 603,
    "king": 604,
    " laug": 605,
    " fl": 606,
    "ure": 607,
    " scared": 608,
    "ny": 609,
    " took": 610,
    " pr": 611,
    "ick": 612,
    "if": 613,
    "ep": 614,
    " around": 615,
    " box": 616,
    " will": 617,
    " You": 618,
    " learn": 619,
    "ab": 620,
    " toys": 621,
    "ret": 622,
    " bl": 623,
    " things": 624,
    " my": 625,
    "oud": 626,
    " your": 627,
    " sun": 628,
    " when": 629,
    "ish": 630,
    " lived": 631,
    " fe": 632,
    "uck": 633,
    " sw": 634,
    " then": 635,
    "as": 636,
    " ch": 637,
    ",\"": 638,
    "pped": 639,
    " ab": 640,
    "us": 641,
    "ank": 642,
    "Tim": 643,
    " Mia": 644,
    " get": 645,
    " lot": 646,
    "oth": 647,
    "ap": 648,
    "ucy": 649,
    "ump": 650,
    "Th": 651,
    "ist": 652,
    " says": 653,
    "ited": 654,
    " know": 655,
    " tried": 656,
    " got": 657,
    "ust": 658,
    " kne": 659,
    " who": 660,
    "nder": 661,
    " many": 662,
    " int": 663,
    " about": 664,
    "Lily": 665,
    " pret": 666,
    " any": 667,
    "ise": 668,
    " D": 669,
    " dec": 670,
    " knew": 671,
    "ive": 672,
    " more": 673,
    " red": 674,
    "ous": 675,
    " pic": 676,
    " hug": 677,
    "ace": 678,
    "qu": 679,
    " po": 680,
    "ally": 681,
    " care": 682,
    "au": 683,
    " water": 684,
    " became": 685,
    " Lucy": 686,
    " v": 687,
    "fter": 688,
    " best": 689,
    "urp": 690,
    " learned": 691,
    " op": 692,
    " exc": 693,
    "â": 694,
    "ways": 695,
    "ause": 696,
    " outside": 697,
    " gre": 698,
    " always": 699,
    " laughed": 700,
    " show": 701,
    " look": 702,
    " decid": 703,
    " ho": 704,
    " un": 705,
    " eat": 706,
    " decided": 707,
    " room": 708,
    " Bob": 709,
    " both": 710,
    " So": 711,
    " because": 712,
    "ant": 713,
    "fe": 714,
    "ite": 715,
    " Mom": 716,
    " into": 717,
    " And": 718,
    " jump": 719,
    "ers": 720,
    "udd": 721,
    " ke": 722,
    "They": 723,
    " pe": 724,
    " dad": 725,
    "nn": 726,
    " one": 727,
    " excited": 728,
    " this": 729,
    " nice": 730,
    " long": 731,
    " run": 732,
    " feel": 733,
    "Yes": 734,
    " fast": 735,
    "Tom": 736,
    " E": 737,
    "urpr": 738,
    " sk": 739,
    " told": 740,
    " am": 741,
    "our": 742,
    " surpr": 743,
    " inside": 744,
    " mo": 745,
    "ull": 746,
    "ink": 747,
    " tr": 748,
    " pretty": 749,
    "iny": 750,
    " take": 751,
    " sor": 752,
    " gra": 753,
    "nna": 754,
    "Wh": 755,
    " sl": 756,
    "og": 757,
    "lew": 758,
    " each": 759,
    " rock": 760,
    " much": 761,
    " gave": 762,
    "ged": 763,
    " str": 764,
    " how": 765,
    " need": 766,
    "But": 767,
    " than": 768,
    "imal": 769,
    "ven": 770,
    "etter": 771,
    " tow": 772,
    " animal": 773,
    " C": 774,
    "ara": 775,
    " or": 776,
    " under": 777,
    " old": 778,
    "ge": 779,
    " sorry": 780,
    "ess": 781,
    "urt": 782,
    " walked": 783,
    "ro": 784,
    "ised": 785,
    "and": 786,
    " clo": 787,
    " hand": 788,
    " fish": 789,
    " bear": 790,
    "ase": 791,
    " cle": 792,
    "ast": 793,
    "ft": 794,
    "here": 795,
    "urn": 796,
    " just": 797,
    " kind": 798,
    " flow": 799,
    " We": 800,
    " didn": 801,
    " te": 802,
    "pl": 803,
    " wat": 804,
    " His": 805,
    " happened": 806,
    " sn": 807,
    " try": 808,
    " ide": 809,
    " food": 810,
    "rom": 811,
    " hig": 812,
    "ched": 813,
    " sky": 814,
    " fi": 815,
    " list": 816,
    " near": 817,
    "ving": 818,
    " animals": 819,
    " idea": 820,
    "ine": 821,
    " us": 822,
    " heard": 823,
    " bug": 824,
    " better": 825,
    " its": 826,
    " tw": 827,
    "ff": 828,
    " Amy": 829,
    " let": 830,
    " en": 831,
    "ate": 832,
    "gry": 833,
    "pec": 834,
    " share": 835,
    " if": 836,
    "able": 837,
    "ex": 838,
    "ial": 839,
    "Thank": 840,
    " stor": 841,
    "Mom": 842,
    " Th": 843,
    "lf": 844,
    " flew": 845,
    " careful": 846,
    " spec": 847,
    " special": 848,
    "ion": 849,
    " com": 850,
    " dan": 851,
    " fly": 852,
    " lots": 853,
    "more": 854,
    " anymore": 855,
    " by": 856,
    " never": 857,
    " fo": 858,
    " don": 859,
    "ream": 860,
    " wind": 861,
    " love": 862,
    " shiny": 863,
    "udden": 864,
    " gr": 865,
    " end": 866,
    " even": 867,
    " tal": 868,
    " fore": 869,
    " bu": 870,
    " Then": 871,
    "rm": 872,
    " clean": 873,
    "\n\n": 874,
    "ort": 875,
    " mag": 876,
    " cake": 877,
    "ber": 878,
    " over": 879,
    " hard": 880,
    "ak": 881,
    "imb": 882,
    " book": 883,
    "uddenly": 884,
    "ople": 885,
    " col": 886,
    " turn": 887,
    " climb": 888,
    " Anna": 889,
    " bad": 890,
    " fam": 891,
    " come": 892,
    "Let": 893,
    " Every": 894,
    " after": 895,
    " safe": 896,
    " high": 897,
    " cu": 898,
    " hurt": 899,
    " door": 900,
    " surprised": 901,
    " proud": 902,
    "ble": 903,
    "pected": 904,
    " gl": 905,
    "ady": 906,
    " picked": 907,
    " opened": 908,
    " ground": 909,
    " loud": 910,
    "expected": 911,
    " unexpected": 912,
    " way": 913,
    "ild": 914,
    " im": 915,
    "arden": 916,
    " garden": 917,
    " che": 918,
    " people": 919,
    "'m": 920,
    " blue": 921,
    "As": 922,
    " hugged": 923,
    " still": 924,
    " thanked": 925,
    " From": 926,
    " color": 927,
    " give": 928,
    " ever": 929,
    " K": 930,
    " far": 931,
    "ip": 932,
    " Her": 933,
    " call": 934,
    "No": 935,
    "ail": 936,
    "iz": 937,
    " When": 938,
    "ummy": 939,
    " magic": 940,
    " off": 941,
    "ough": 942,
    " Sara": 943,
    " jumped": 944,
    " family": 945,
    "age": 946,
    " smile": 947,
    " kid": 948,
    " qu": 949,
    " walk": 950,
    "kay": 951,
    "ool": 952,
    "ture": 953,
    "uff": 954,
    " In": 955,
    " should": 956,
    "itty": 957,
    " par": 958,
    "hes": 959,
    " place": 960,
    " now": 961,
    " stay": 962,
    " forest": 963,
    " unt": 964,
    "ct": 965,
    " great": 966,
    " sto": 967,
    "aut": 968,
    " bra": 969,
    "ning": 970,
    "ane": 971,
    " strong": 972,
    "by": 973,
    "em": 974,
    " P": 975,
    " until": 976,
    " squ": 977,
    "oon": 978,
    " stick": 979,
    " beaut": 980,
    "xt": 981,
    "lease": 982,
    " next": 983,
    "dy": 984,
    "aking": 985,
    " happily": 986,
    " bro": 987,
    " frog": 988,
    " clos": 989,
    " while": 990,
    "oy": 991,
    " kids": 992,
    "unny": 993,
    " picture": 994,
    " app": 995,
    "iful": 996,
    " beautiful": 997,
    "rel": 998,
    "be": 999,
    "th": 1000,
    "ies": 1001,
    " story": 1002,
    " showed": 1003,
    " rain": 1004,
    " listen": 1005,
    " imp": 1006,
    " helped": 1007,
    "ress": 1008,
    " boat": 1009,
    "pt": 1010,
    " town": 1011,
    " dra": 1012,
    " being": 1013,
    " ad": 1014,
    " everyone": 1015,
    "It": 1016,
    " tra": 1017,
    "ary": 1018,
    "ree": 1019,
    " wo": 1020,
    " mor": 1021,
    " met": 1022,
    " called": 1023,
    " hat": 1024,
    " stopped": 1025,
    "Now": 1026,
    " game": 1027,
    " soft": 1028,
    "Can": 1029,
    " bed": 1030,
    " open": 1031,
    " yummy": 1032,
    "vent": 1033,
    " rem": 1034,
    "uffy": 1035,
    " Kitty": 1036,
    " mouse": 1037,
    "He": 1038,
    "When": 1039,
    " keep": 1040,
    " cry": 1041,
    " truck": 1042,
    "ger": 1043,
    " watch": 1044,
    "bit": 1045,
    " angry": 1046,
    " brave": 1047,
    " Let": 1048,
    "les": 1049,
    " R": 1050,
    " ate": 1051,
    " couldn": 1052,
    " Wh": 1053,
    " de": 1054,
    "abbit": 1055,
    " fell": 1056,
    " lost": 1057,
    "ished": 1058,
    " Sally": 1059,
    " warm": 1060,
    " flowers": 1061,
    "dded": 1062,
    "so": 1063,
    "fore": 1064,
    " where": 1065,
    " also": 1066,
    " doll": 1067,
    " noise": 1068,
    " leave": 1069,
    "gan": 1070,
    " green": 1071,
    " rabbit": 1072,
    " two": 1073,
    "What": 1074,
    " face": 1075,
    "irst": 1076,
    " soon": 1077,
    "irrel": 1078,
    "ock": 1079,
    "owl": 1080,
    "self": 1081,
    "iss": 1082,
    "illy": 1083,
    "az": 1084,
    " slide": 1085,
    " hands": 1086,
    " squirrel": 1087,
    "luffy": 1088,
    " pus": 1089,
    " pain": 1090,
    " hear": 1091,
    " expl": 1092,
    "Hi": 1093,
    " sat": 1094,
    "ired": 1095,
    " hole": 1096,
    " before": 1097,
    "â": 1098,
    "â": 1099,
    " nodded": 1100,
    " kept": 1101,
    " pa": 1102,
    "Then": 1103,
    "Look": 1104,
    "ma": 1105,
    "ear": 1106,
    " ey": 1107,
    "That": 1108,
    " birds": 1109,
    "leep": 1110,
    " cook": 1111,
    " use": 1112,
    " store": 1113,
    "day": 1114,
    " going": 1115,
    "bb": 1116,
    "aybe": 1117,
    " bre": 1118,
    "Ben": 1119,
    " fin": 1120,
    " having": 1121,
    " fix": 1122,
    " sing": 1123,
    " pond": 1124,
    " catch": 1125,
    "ange": 1126,
    " bunny": 1127,
    " used": 1128,
    " Fluffy": 1129,
    " funny": 1130,
    " looking": 1131,
    " wr": 1132,
    " tired": 1133,
    " yell": 1134,
    "aug": 1135,
    " think": 1136,
    "uch": 1137,
    "aught": 1138,
    " our": 1139,
    " bus": 1140,
    "thing": 1141,
    " Can": 1142,
    " sunny": 1143,
    "itc": 1144,
    " cra": 1145,
    " Now": 1146,
    " mean": 1147,
    " work": 1148,
    " thr": 1149,
    "We": 1150,
    " has": 1151,
    " sound": 1152,
    " beh": 1153,
    " jo": 1154,
    "air": 1155,
    " others": 1156,
    " wait": 1157,
    "uit": 1158,
    "ting": 1159,
    " pull": 1160,
    " mommy": 1161,
    " head": 1162,
    "joy": 1163,
    "itchen": 1164,
    " kitchen": 1165,
    " eyes": 1166,
    "led": 1167,
    "rew": 1168,
    " ask": 1169,
    " flo": 1170,
    " G": 1171,
    " tri": 1172,
    " talk": 1173,
    " Jack": 1174,
    " pie": 1175,
    " dif": 1176,
    " mon": 1177,
    "ember": 1178,
    "ello": 1179,
    "Hello": 1180,
    " fav": 1181,
    " z": 1182,
    " mess": 1183,
    "ng": 1184,
    " first": 1185,
    " vo": 1186,
    " right": 1187,
    " con": 1188,
    " advent": 1189,
    "ious": 1190,
    " curi": 1191,
    " flower": 1192,
    " enjoy": 1193,
    " sand": 1194,
    " dr": 1195,
    " Jo": 1196,
    " real": 1197,
    "imes": 1198,
    " import": 1199,
    "zy": 1200,
    " duck": 1201,
    " hill": 1202,
    " Do": 1203,
    " â": 1204,
    "ath": 1205,
    "orn": 1206,
    " curious": 1207,
    "eet": 1208,
    " shared": 1209,
    " cold": 1210,
    " sleep": 1211,
    " bright": 1212,
    " okay": 1213,
    " moral": 1214,
    "llow": 1215,
    " hop": 1216,
    " remember": 1217,
    "ount": 1218,
    " making": 1219,
    " dir": 1220,
    "reed": 1221,
    " race": 1222,
    "At": 1223,
    " bag": 1224,
    " important": 1225,
    " party": 1226,
    " thing": 1227,
    " tall": 1228,
    " worked": 1229,
    "ac": 1230,
    " hid": 1231,
    "ster": 1232,
    " yard": 1233,
    " Fin": 1234,
    "que": 1235,
    " dress": 1236,
    " began": 1237,
    " cla": 1238,
    " favor": 1239,
    " here": 1240,
    "Don": 1241,
    " favorite": 1242,
    " rest": 1243,
    " surprise": 1244,
    "Wow": 1245,
    "lly": 1246,
    " dis": 1247,
    "aper": 1248,
    " trees": 1249,
    " watched": 1250,
    " own": 1251,
    " follow": 1252,
    " grass": 1253,
    " draw": 1254,
    " agreed": 1255,
    "ect": 1256,
    " move": 1257,
    " night": 1258,
    " cut": 1259,
    "co": 1260,
    "hn": 1261,
    " dark": 1262,
    " bel": 1263,
    " ri": 1264,
    " walking": 1265,
    " pick": 1266,
    " top": 1267,
    " hot": 1268,
    " block": 1269,
    " worry": 1270,
    " ice": 1271,
    " behind": 1272,
    " This": 1273,
    " tell": 1274,
    " voice": 1275,
    " hun": 1276,
    "ied": 1277,
    " floor": 1278,
    " read": 1279,
    " ru": 1280,
    " stop": 1281,
    " sho": 1282,
    " Dad": 1283,
    "Max": 1284,
    " farm": 1285,
    " colors": 1286,
    " forg": 1287,
    "After": 1288,
    " table": 1289,
    " please": 1290,
    " song": 1291,
    " closer": 1292,
    " lion": 1293,
    " tail": 1294,
    "isy": 1295,
    " turned": 1296,
    "fere": 1297,
    " adventure": 1298,
    " leaves": 1299,
    " differe": 1300,
    " shout": 1301,
    " does": 1302,
    " sweet": 1303,
    " Mr": 1304,
    " needed": 1305,
    " cars": 1306,
    "aring": 1307,
    "ign": 1308,
    " del": 1309,
    " Suddenly": 1310,
    "â": 1311,
    "Anna": 1312,
    " tast": 1313,
    " wood": 1314,
    " lady": 1315,
    " feeling": 1316,
    "Why": 1317,
    " paper": 1318,
    " cried": 1319,
    " fire": 1320,
    "ered": 1321,
    " swing": 1322,
    " roll": 1323,
    "Sue": 1324,
    " friendly": 1325,
    " different": 1326,
    " wet": 1327,
    " cr": 1328,
    " laugh": 1329,
    " full": 1330,
    " As": 1331,
    " yellow": 1332,
    " butter": 1333,
    " hungry": 1334,
    " climbed": 1335,
    " prin": 1336,
    "ient": 1337,
    " piece": 1338,
    " dance": 1339,
    "bo": 1340,
    "ike": 1341,
    "ached": 1342,
    "ken": 1343,
    " plan": 1344,
    " touch": 1345,
    "Sam": 1346,
    " light": 1347,
    " running": 1348,
    "oom": 1349,
    "cked": 1350,
    " per": 1351,
    "ater": 1352,
    "bye": 1353,
    " hair": 1354,
    " That": 1355,
    " broken": 1356,
    " fruit": 1357,
    " danc": 1358,
    " wonder": 1359,
    "where": 1360,
    " ready": 1361,
    " another": 1362,
    " prom": 1363,
    " swim": 1364,
    " only": 1365,
    " Jane": 1366,
    " listened": 1367,
    " gone": 1368,
    "ppy": 1369,
    "Suddenly": 1370,
    "She": 1371,
    " hold": 1372,
    " Bobo": 1373,
    "bbed": 1374,
    " pretend": 1375,
    " smell": 1376,
    " close": 1377,
    "ndma": 1378,
    " ant": 1379,
    "ins": 1380,
    "sh": 1381,
    " helping": 1382,
    " amaz": 1383,
    "So": 1384,
    "aby": 1385,
    " glad": 1386,
    " reached": 1387,
    " blocks": 1388,
    " sees": 1389,
    " slow": 1390,
    "ather": 1391,
    "iced": 1392,
    "Sara": 1393,
    " repl": 1394,
    " goodbye": 1395,
    " cool": 1396,
    "av": 1397,
    " been": 1398,
    " All": 1399,
    " dri": 1400,
    " stuck": 1401,
    " sit": 1402,
    " snow": 1403,
    " ar": 1404,
    "ila": 1405,
    " O": 1406,
    " pu": 1407,
    " explore": 1408,
    "red": 1409,
    " Timmy": 1410,
    "af": 1411,
    " window": 1412,
    " less": 1413,
    " Everyone": 1414,
    "oney": 1415,
    " pushed": 1416,
    "Mia": 1417,
    " wall": 1418,
    " fight": 1419,
    " might": 1420,
    " ste": 1421,
    " ac": 1422,
    " name": 1423,
    " trying": 1424,
    " bit": 1425,
    " moment": 1426,
    " baby": 1427,
    " must": 1428,
    " child": 1429,
    "icy": 1430,
    " quick": 1431,
    " bar": 1432,
    "key": 1433,
    " wag": 1434,
    " coming": 1435,
    " done": 1436,
    " hide": 1437,
    " buy": 1438,
    "aisy": 1439,
    " cream": 1440,
    " looks": 1441,
    " held": 1442,
    " dirty": 1443,
    " perf": 1444,
    "ized": 1445,
    " fair": 1446,
    " din": 1447,
    " books": 1448,
    " wished": 1449,
    " butterf": 1450,
    " apple": 1451,
    " dream": 1452,
    " doing": 1453,
    " underst": 1454,
    " balloon": 1455,
    " thank": 1456,
    " fall": 1457,
    " dro": 1458,
    " reach": 1459,
    " scary": 1460,
    " cloud": 1461,
    "ash": 1462,
    "amp": 1463,
    "andy": 1464,
    "ames": 1465,
    " mat": 1466,
    " build": 1467,
    "In": 1468,
    " left": 1469,
    " through": 1470,
    " why": 1471,
    " sure": 1472,
    " air": 1473,
    "'re": 1474,
    " count": 1475,
    " shouted": 1476,
    "ott": 1477,
    " wise": 1478,
    " three": 1479,
    " win": 1480,
    " mar": 1481,
    "ix": 1482,
    " cup": 1483,
    "ield": 1484,
    " replied": 1485,
    " spl": 1486,
    " clapped": 1487,
    "ely": 1488,
    " woods": 1489,
    " sometimes": 1490,
    " tiny": 1491,
    " owl": 1492,
    " land": 1493,
    " seen": 1494,
    " grow": 1495,
    " pink": 1496,
    "Okay": 1497,
    " paint": 1498,
    " bran": 1499,
    " train": 1500,
    " pulled": 1501,
    " join": 1502,
    "pe": 1503,
    "outh": 1504,
    " After": 1505,
    " chair": 1506,
    "ph": 1507,
    "avy": 1508,
    " brother": 1509,
    " nest": 1510,
    " cont": 1511,
    "art": 1512,
    " mouth": 1513,
    "ation": 1514,
    " fill": 1515,
    " waved": 1516,
    " cre": 1517,
    " bigger": 1518,
    " grabbed": 1519,
    " colorful": 1520,
    "ask": 1521,
    " stayed": 1522,
    " enjoyed": 1523,
    "oup": 1524,
    " Mommy": 1525,
    " waited": 1526,
    " job": 1527,
    " treat": 1528,
    " cast": 1529,
    " ve": 1530,
    " noticed": 1531,
    " remembered": 1532,
    " quickly": 1533,
    "uddy": 1534,
    "room": 1535,
    " blew": 1536,
    " There": 1537,
    " lesson": 1538,
    "Oh": 1539,
    "ower": 1540,
    " plant": 1541,
    " pictures": 1542,
    "der": 1543,
    "This": 1544,
    "ries": 1545,
    " pot": 1546,
    " alone": 1547,
    " butterfly": 1548,
    " games": 1549,
    " gent": 1550,
    "Jo": 1551,
    "ds": 1552,
    "man": 1553,
    " pen": 1554,
    " set": 1555,
    "cle": 1556,
    " anything": 1557,
    "de": 1558,
    " world": 1559,
    "ub": 1560,
    " spot": 1561,
    " clot": 1562,
    " arm": 1563,
    " hopped": 1564,
    " tight": 1565,
    " clothes": 1566,
    " je": 1567,
    " mix": 1568,
    " broke": 1569,
    "ton": 1570,
    " likes": 1571,
    " bott": 1572,
    " gif": 1573,
    "asure": 1574,
    " pat": 1575,
    " year": 1576,
    " miss": 1577,
    " threw": 1578,
    " heavy": 1579,
    "lc": 1580,
    " tower": 1581,
    " sea": 1582,
    "ape": 1583,
    " turns": 1584,
    " comp": 1585,
    " mus": 1586,
    " black": 1587,
    "ucky": 1588,
    " himself": 1589,
    " Daisy": 1590,
    "Lucy": 1591,
    "row": 1592,
    " delic": 1593,
    " swam": 1594,
    " monster": 1595,
    " everywhere": 1596,
    "less": 1597,
    "ctor": 1598,
    " ju": 1599,
    " key": 1600,
    " followed": 1601,
    " bike": 1602,
    "Her": 1603,
    " What": 1604,
    "thy": 1605,
    " makes": 1606,
    " white": 1607,
    " Buddy": 1608,
    " castle": 1609,
    " wrong": 1610,
    "orm": 1611,
    "ued": 1612,
    " forgot": 1613,
    "Bob": 1614,
    " pol": 1615,
    " won": 1616,
    " break": 1617,
    "Do": 1618,
    "\".": 1619,
    "cess": 1620,
    " deep": 1621,
    "iet": 1622,
    "Spot": 1623,
    " wear": 1624,
    " nap": 1625,
    " round": 1626,
    " bee": 1627,
    "ner": 1628,
    "arent": 1629,
    "olly": 1630,
    " quiet": 1631,
    "oun": 1632,
    "ee": 1633,
    "ves": 1634,
    " dry": 1635,
    " hit": 1636,
    "rot": 1637,
    " em": 1638,
    " parent": 1639,
    " danced": 1640,
    "up": 1641,
    "ance": 1642,
    " music": 1643,
    " vis": 1644,
    " bor": 1645,
    "ully": 1646,
    "os": 1647,
    " ride": 1648,
    " understand": 1649,
    " wants": 1650,
    "ister": 1651,
    " rel": 1652,
    "From": 1653,
    "fully": 1654,
    "ts": 1655,
    " leaf": 1656,
    " talked": 1657,
    "ang": 1658,
    " mum": 1659,
    " Inside": 1660,
    " que": 1661,
    "ross": 1662,
    "ren": 1663,
    " brought": 1664,
    "zz": 1665,
    " rocks": 1666,
    " cookies": 1667,
    " leg": 1668,
    " smart": 1669,
    " contin": 1670,
    " faster": 1671,
    " happen": 1672,
    "ards": 1673,
    " bowl": 1674,
    " sec": 1675,
    " side": 1676,
    " really": 1677,
    " res": 1678,
    " poin": 1679,
    " finished": 1680,
    " fox": 1681,
    " John": 1682,
    " sharing": 1683,
    " well": 1684,
    " someone": 1685,
    " sign": 1686,
    " Maybe": 1687,
    "ence": 1688,
    " To": 1689,
    " worried": 1690,
    " secret": 1691,
    " beach": 1692,
    " pig": 1693,
    "His": 1694,
    "cy": 1695,
    " silly": 1696,
    " king": 1697,
    " gu": 1698,
    " button": 1699,
    "itten": 1700,
    " visit": 1701,
    " gi": 1702,
    " flying": 1703,
    "ey": 1704,
    " sister": 1705,
    " dinner": 1706,
    " ear": 1707,
    " branch": 1708,
    " ele": 1709,
    " everything": 1710,
    "gy": 1711,
    " el": 1712,
    " continued": 1713,
    " Soon": 1714,
    " At": 1715,
    " smiles": 1716,
    " today": 1717,
    " Sarah": 1718,
    "eddy": 1719,
    " spr": 1720,
    " field": 1721,
    " filled": 1722,
    " blank": 1723,
    "ses": 1724,
    " danger": 1725,
    "John": 1726,
    " wish": 1727,
    " perfect": 1728,
    " jar": 1729,
    " blanket": 1730,
    " else": 1731,
    " children": 1732,
    " monkey": 1733,
    "ipp": 1734,
    " cow": 1735,
    " orange": 1736,
    " pudd": 1737,
    " free": 1738,
    " Lila": 1739,
    " snack": 1740,
    " shin": 1741,
    " eating": 1742,
    "ated": 1743,
    " welc": 1744,
    "ze": 1745,
    " carefully": 1746,
    " snake": 1747,
    " bite": 1748,
    " fur": 1749,
    "Maybe": 1750,
    " purp": 1751,
    " river": 1752,
    " realized": 1753,
    "itting": 1754,
    " brown": 1755,
    " bath": 1756,
    " crying": 1757,
    "ead": 1758,
    "imi": 1759,
    "Fin": 1760,
    " promised": 1761,
    " rolled": 1762,
    " sang": 1763,
    " parents": 1764,
    " mud": 1765,
    " grandma": 1766,
    " purple": 1767,
    " pieces": 1768,
    "While": 1769,
    " sail": 1770,
    " Em": 1771,
    " yes": 1772,
    "stead": 1773,
    "cket": 1774,
    "Amy": 1775,
    " laughing": 1776,
    "Just": 1777,
    " soup": 1778,
    " throw": 1779,
    " pet": 1780,
    "ire": 1781,
    " boun": 1782,
    " doctor": 1783,
    " drink": 1784,
    " enough": 1785,
    " candy": 1786,
    " barked": 1787,
    " lon": 1788,
    " amazing": 1789,
    " lake": 1790,
    " asks": 1791,
    " lonely": 1792,
    "ich": 1793,
    "ons": 1794,
    " shop": 1795,
    " gift": 1796,
    "ord": 1797,
    " closed": 1798,
    "ased": 1799,
    "ises": 1800,
    " without": 1801,
    " drag": 1802,
    "used": 1803,
    "bble": 1804,
    " morning": 1805,
    " apples": 1806,
    " shoes": 1807,
    " Bl": 1808,
    " crab": 1809,
    " past": 1810,
    " Billy": 1811,
    " att": 1812,
    "chool": 1813,
    ".â": 1814,
    " sitting": 1815,
    " moved": 1816,
    " bottle": 1817,
    "althy": 1818,
    " wagged": 1819,
    " smo": 1820,
    " words": 1821,
    "ere": 1822,
    " Joe": 1823,
    " school": 1824,
    "fort": 1825,
    " whe": 1826,
    " strange": 1827,
    " dangerous": 1828,
    " welcome": 1829,
    " creat": 1830,
    " getting": 1831,
    " living": 1832,
    " Tommy": 1833,
    " fairy": 1834,
    "vel": 1835,
    " runs": 1836,
    " -": 1837,
    "board": 1838,
    "ible": 1839,
    "ass": 1840,
    "gg": 1841,
    " mad": 1842,
    "unch": 1843,
    "!â": 1844,
    "emy": 1845,
    "iver": 1846,
    " letter": 1847,
    " delicious": 1848,
    " treasure": 1849,
    "Mommy": 1850,
    "ale": 1851,
    "fish": 1852,
    " money": 1853,
    " Z": 1854,
    "arm": 1855,
    " coll": 1856,
    " paw": 1857,
    " road": 1858,
    " higher": 1859,
    " Gra": 1860,
    "me": 1861,
    " pass": 1862,
    " pill": 1863,
    " stre": 1864,
    " pre": 1865,
    " whist": 1866,
    "cks": 1867,
    "ush": 1868,
    " Ch": 1869,
    " shining": 1870,
    " stand": 1871,
    " caught": 1872,
    " egg": 1873,
    " Mimi": 1874,
    " chee": 1875,
    "una": 1876,
    "ella": 1877,
    " Jen": 1878,
    " talking": 1879,
    " bring": 1880,
    " ra": 1881,
    " same": 1882,
    " wings": 1883,
    " stone": 1884,
    " puddle": 1885,
    " mother": 1886,
    "itch": 1887,
    "app": 1888,
    " nose": 1889,
    " farmer": 1890,
    " scream": 1891,
    " belie": 1892,
    " ph": 1893,
    "set": 1894,
    " owner": 1895,
    "igh": 1896,
    " thinks": 1897,
    " hor": 1898,
    " bask": 1899,
    " finally": 1900,
    " basket": 1901,
    " mail": 1902,
    " swings": 1903,
    " push": 1904,
    " start": 1905,
    " dropped": 1906,
    "igg": 1907,
    " carrot": 1908,
    " years": 1909,
    " coat": 1910,
    " days": 1911,
    " sear": 1912,
    "ined": 1913,
    " fan": 1914,
    " bush": 1915,
    "isk": 1916,
    " mine": 1917,
    " hoped": 1918,
    " teddy": 1919,
    " tasty": 1920,
    "Please": 1921,
    " herself": 1922,
    "sw": 1923,
    " arri": 1924,
    " wore": 1925,
    "'ll": 1926,
    "sy": 1927,
    " answ": 1928,
    " woke": 1929,
    " tom": 1930,
    " dragon": 1931,
    " bat": 1932,
    "bow": 1933,
    " gentle": 1934,
    " cray": 1935,
    " trou": 1936,
    " stu": 1937,
    "OK": 1938,
    " teach": 1939,
    "erry": 1940,
    " buck": 1941,
    " seed": 1942,
    "eb": 1943,
    " singing": 1944,
    "llie": 1945,
    " seem": 1946,
    "ipped": 1947,
    "ches": 1948,
    " cho": 1949,
    " cute": 1950,
    "phant": 1951,
    "ier": 1952,
    " spoon": 1953,
    " sack": 1954,
    " Blue": 1955,
    " belong": 1956,
    " pers": 1957,
    " min": 1958,
    "Jack": 1959,
    " kite": 1960,
    " spin": 1961,
    " twins": 1962,
    " rope": 1963,
    "iskers": 1964,
    " Remy": 1965,
    " vill": 1966,
    " teac": 1967,
    " cheered": 1968,
    " bow": 1969,
    " wonderful": 1970,
    " elephant": 1971,
    " grew": 1972,
    " bread": 1973,
    "ball": 1974,
    " rainbow": 1975,
    "idge": 1976,
    "sc": 1977,
    "ol": 1978,
    " ben": 1979,
    " forever": 1980,
    " corn": 1981,
    " joy": 1982,
    " cour": 1983,
    "ract": 1984,
    " able": 1985,
    " shap": 1986,
    " juice": 1987,
    "aughty": 1988,
    " touc": 1989,
    " shook": 1990,
    " puppy": 1991,
    " fit": 1992,
    " naughty": 1993,
    " hiding": 1994,
    " shell": 1995,
    " arrived": 1996,
    "fused": 1997,
    "irth": 1998,
    " most": 1999,
    "irthday": 2000,
    " pile": 2001,
    " heart": 2002,
    " course": 2003,
    "\n ": 2004,
    "br": 2005,
    " shake": 2006,
    " cheese": 2007,
    "Finally": 2008,
    "Good": 2009,
    " street": 2010,
    " inc": 2011,
    " eas": 2012,
    "ama": 2013,
    " fence": 2014,
    " promise": 2015,
    " lunch": 2016,
    " Thank": 2017,
    " prob": 2018,
    " touched": 2019,
    " shapes": 2020,
    " sounds": 2021,
    "arp": 2022,
    " dolls": 2023,
    " neck": 2024,
    " village": 2025,
    " des": 2026,
    " teacher": 2027,
    " bugs": 2028,
    " nut": 2029,
    "lem": 2030,
    " war": 2031,
    " few": 2032,
    "isa": 2033,
    " problem": 2034,
    " busy": 2035,
    " birthday": 2036,
    " shr": 2037,
    " sharp": 2038,
    " shy": 2039,
    "ian": 2040,
    " power": 2041,
    " patient": 2042,
    " balls": 2043,
    "ountain": 2044,
    " holding": 2045,
    " carry": 2046,
    " meet": 2047,
    " spark": 2048,
    " plane": 2049,
    " cave": 2050,
    " Whiskers": 2051,
    "col": 2052,
    " feels": 2053,
    "lla": 2054,
    " pop": 2055,
    " bench": 2056,
    " towards": 2057,
    " spo": 2058,
    " band": 2059,
    "urtle": 2060,
    "eared": 2061,
    "ourn": 2062,
    " pocket": 2063,
    " Bella": 2064,
    " kiss": 2065,
    " journ": 2066,
    " believe": 2067,
    " dirt": 2068,
    " ob": 2069,
    " wra": 2070,
    " num": 2071,
    " late": 2072,
    "irp": 2073,
    "adow": 2074,
    " storm": 2075,
    " Emma": 2076,
    "eter": 2077,
    " magical": 2078,
    " Fred": 2079,
    " helpful": 2080,
    "gly": 2081,
    " rec": 2082,
    "ator": 2083,
    " dist": 2084,
    " noises": 2085,
    " bell": 2086,
    " live": 2087,
    "ato": 2088,
    " upset": 2089,
    "ling": 2090,
    " honey": 2091,
    "ilk": 2092,
    "ost": 2093,
    " cover": 2094,
    "alm": 2095,
    " slowly": 2096,
    " coin": 2097,
    " turtle": 2098,
    " stories": 2099,
    " wild": 2100,
    "umpy": 2101,
    "irt": 2102,
    " trip": 2103,
    " mist": 2104,
    " ugly": 2105,
    " hugs": 2106,
    " horse": 2107,
    " amazed": 2108,
    " milk": 2109,
    " rob": 2110,
    "unt": 2111,
    "epend": 2112,
    " treats": 2113,
    " glow": 2114,
    "read": 2115,
    " gray": 2116,
    " organ": 2117,
    " stars": 2118,
    " pillow": 2119,
    " fold": 2120,
    " cir": 2121,
    " suc": 2122,
    " di": 2123,
    " splas": 2124,
    "oose": 2125,
    " disapp": 2126,
    " cloth": 2127,
    " driver": 2128,
    " sug": 2129,
    "pping": 2130,
    " seat": 2131,
    "oggy": 2132,
    " whistle": 2133,
    " string": 2134,
    "iling": 2135,
    " mark": 2136,
    " Le": 2137,
    "aur": 2138,
    " sandw": 2139,
    " giant": 2140,
    " taking": 2141,
    " princess": 2142,
    " rude": 2143,
    " wide": 2144,
    " Jim": 2145,
    " young": 2146,
    " spicy": 2147,
    " lucky": 2148,
    "fortable": 2149,
    " drove": 2150,
    " inv": 2151,
    " robot": 2152,
    " zoom": 2153,
    " snowman": 2154,
    "ung": 2155,
    " seek": 2156,
    " card": 2157,
    " puzz": 2158,
    " foot": 2159,
    " moon": 2160,
    " craw": 2161,
    " Mark": 2162,
    "ove": 2163,
    " huge": 2164,
    "ular": 2165,
    " part": 2166,
    " ducks": 2167,
    " fighting": 2168,
    " net": 2169,
    " instead": 2170,
    "ize": 2171,
    "Be": 2172,
    "not": 2173,
    "elly": 2174,
    " spid": 2175,
    " Come": 2176,
    "ens": 2177,
    "Sure": 2178,
    "Later": 2179,
    " Finally": 2180,
    " shelf": 2181,
    " fixed": 2182,
    " cannot": 2183,
    " sick": 2184,
    " write": 2185,
    " oven": 2186,
    " cookie": 2187,
    " lem": 2188,
    " forget": 2189,
    " wheel": 2190,
    " bucket": 2191,
    " taste": 2192,
    " kitten": 2193,
    "est": 2194,
    " adventures": 2195,
    " wasn": 2196,
    "Of": 2197,
    "pper": 2198,
    "Hey": 2199,
    " boss": 2200,
    "den": 2201,
    " Just": 2202,
    " suddenly": 2203,
    " mach": 2204,
    " chased": 2205,
    " On": 2206,
    " ser": 2207,
    " bone": 2208,
    " bark": 2209,
    " sal": 2210,
    " tie": 2211,
    " drive": 2212,
    " hidden": 2213,
    " phone": 2214,
    " peace": 2215,
    " rad": 2216,
    "lower": 2217,
    "bled": 2218,
    " ce": 2219,
    " stepped": 2220,
    "erest": 2221,
    " sel": 2222,
    " wave": 2223,
    " grab": 2224,
    " smooth": 2225,
    " thin": 2226,
    " songs": 2227,
    " grumpy": 2228,
    " fle": 2229,
    " Lisa": 2230,
    " last": 2231,
    "ery": 2232,
    "Lila": 2233,
    " daddy": 2234,
    "ose": 2235,
    " comes": 2236,
    " interest": 2237,
    " confused": 2238,
    " beak": 2239,
    " life": 2240,
    " ca": 2241,
    "ert": 2242,
    " pan": 2243,
    " val": 2244,
    " chick": 2245,
    " Ann": 2246,
    " wolf": 2247,
    " change": 2248,
    " N": 2249,
    "ors": 2250,
    " landed": 2251,
    " ban": 2252,
    " selfish": 2253,
    " path": 2254,
    " bubble": 2255,
    " Cat": 2256,
    "rill": 2257,
    " joke": 2258,
    " Grandma": 2259,
    " sheep": 2260,
    "let": 2261,
    " myster": 2262,
    "ife": 2263,
    "oph": 2264,
    "izzy": 2265,
    "ever": 2266,
    "St": 2267,
    " clouds": 2268,
    " sleepy": 2269,
    " grate": 2270,
    "to": 2271,
    "iger": 2272,
    " tea": 2273,
    "wel": 2274,
    "izz": 2275,
    " cart": 2276,
    " later": 2277,
    " clever": 2278,
    " bought": 2279,
    " exp": 2280,
    " fruits": 2281,
    " missed": 2282,
    " jelly": 2283,
    " wash": 2284,
    " Leo": 2285,
    " jog": 2286,
    " av": 2287,
    " ring": 2288,
    " across": 2289,
    "eth": 2290,
    " slid": 2291,
    " grateful": 2292,
    " imag": 2293,
    "dge": 2294,
    " rocket": 2295,
    "To": 2296,
    " healthy": 2297,
    " spray": 2298,
    " watching": 2299,
    " seemed": 2300,
    " spider": 2301,
    "stion": 2302,
    " spe": 2303,
    " jewel": 2304,
    " su": 2305,
    " banan": 2306,
    " legs": 2307,
    "ity": 2308,
    " drew": 2309,
    " ent": 2310,
    " Luna": 2311,
    " messy": 2312,
    " explain": 2313,
    "?â": 2314,
    " calm": 2315,
    "Soon": 2316,
    " Daddy": 2317,
    " sticks": 2318,
    "kin": 2319,
    " step": 2320,
    "ward": 2321,
    "llo": 2322,
    " pour": 2323,
    " mot": 2324,
    " cou": 2325,
    " emp": 2326,
    " empty": 2327,
    " fing": 2328,
    " though": 2329,
    " Bunny": 2330,
    "ope": 2331,
    " lad": 2332,
    " interesting": 2333,
    " machine": 2334,
    " Jerry": 2335,
    " Momo": 2336,
    "irpy": 2337,
    " smelly": 2338,
    " yog": 2339,
    "unk": 2340,
    " sour": 2341,
    " worm": 2342,
    " ash": 2343,
    "ugg": 2344,
    " takes": 2345,
    " prot": 2346,
    " wondered": 2347,
    " ign": 2348,
    " queen": 2349,
    " tid": 2350,
    "erly": 2351,
    " finish": 2352,
    " Molly": 2353,
    " lay": 2354,
    " lift": 2355,
    "pect": 2356,
    " save": 2357,
    "oc": 2358,
    " zoo": 2359,
    " question": 2360,
    " easy": 2361,
    " chew": 2362,
    " whole": 2363,
    "yard": 2364,
    " along": 2365,
    "ming": 2366,
    " med": 2367,
    " working": 2368,
    " ladder": 2369,
    "mer": 2370,
    " nothing": 2371,
    " backyard": 2372,
    " arms": 2373,
    " act": 2374,
    "oomy": 2375,
    " hope": 2376,
    " feather": 2377,
    "Come": 2378,
    "amed": 2379,
    " splash": 2380,
    " plate": 2381,
    "ars": 2382,
    " longer": 2383,
    " Jill": 2384,
    " fil": 2385,
    "ult": 2386,
    " smelled": 2387,
    " dogs": 2388,
    " trouble": 2389,
    " ba": 2390,
    "oop": 2391,
    " gently": 2392,
    " Be": 2393,
    "ones": 2394,
    " With": 2395,
    " Ollie": 2396,
    "bar": 2397,
    "ork": 2398,
    " puzzle": 2399,
    " Doggy": 2400,
    " explor": 2401,
    " anyone": 2402,
    " scar": 2403,
    " pin": 2404,
    " maybe": 2405,
    " tidy": 2406,
    " supp": 2407,
    " kick": 2408,
    " places": 2409,
    " sol": 2410,
    "ocked": 2411,
    " pract": 2412,
    "rass": 2413,
    "barrass": 2414,
    " cross": 2415,
    " bal": 2416,
    " embarrass": 2417,
    " pack": 2418,
    " neigh": 2419,
    " mind": 2420,
    " forgive": 2421,
    "arge": 2422,
    " saved": 2423,
    " faces": 2424,
    "orrow": 2425,
    " line": 2426,
    " person": 2427,
    " bossy": 2428,
    "ont": 2429,
    " ship": 2430,
    " mistake": 2431,
    " jumping": 2432,
    " neighb": 2433,
    " Bobby": 2434,
    "ually": 2435,
    "sp": 2436,
    " Chirpy": 2437,
    " lovely": 2438,
    " crayons": 2439,
    " weak": 2440,
    " onto": 2441,
    " lemon": 2442,
    "iting": 2443,
    " gives": 2444,
    "ipe": 2445,
    " boring": 2446,
    " wing": 2447,
    " fake": 2448,
    " deer": 2449,
    "box": 2450,
    " swimming": 2451,
    "ado": 2452,
    "Kitty": 2453,
    "izza": 2454,
    "era": 2455,
    "oof": 2456,
    "ment": 2457,
    " such": 2458,
    " hum": 2459,
    " dish": 2460,
    " front": 2461,
    " large": 2462,
    " Their": 2463,
    " map": 2464,
    " Mary": 2465,
    " waiting": 2466,
    " sur": 2467,
    " pizza": 2468,
    " law": 2469,
    " lazy": 2470,
    " tomorrow": 2471,
    " loves": 2472,
    "ned": 2473,
    "My": 2474,
    " Why": 2475,
    " eag": 2476,
    " gather": 2477,
    "And": 2478,
    " building": 2479,
    "osaur": 2480,
    "irr": 2481,
    " prince": 2482,
    "ina": 2483,
    " appeared": 2484,
    " fancy": 2485,
    "onest": 2486,
    " pointed": 2487,
    " cleaned": 2488,
    " cheer": 2489,
    "icked": 2490,
    "ek": 2491,
    " splashed": 2492,
    " match": 2493,
    " cozy": 2494,
    "aughter": 2495,
    " af": 2496,
    " shirt": 2497,
    " teeth": 2498,
    " nearby": 2499,
    "ute": 2500,
    "Sally": 2501,
    " If": 2502,
    "oman": 2503,
    " sandwich": 2504,
    " true": 2505,
    " pool": 2506,
    " impress": 2507,
    " journey": 2508,
    " Somet": 2509,
    " My": 2510,
    " honest": 2511,
    " ants": 2512,
    "urse": 2513,
    "aw": 2514,
    " plants": 2515,
    " dinosaur": 2516,
    " goes": 2517,
    " puts": 2518,
    " woman": 2519,
    " TV": 2520,
    " Bu": 2521,
    " stood": 2522,
    " scarf": 2523,
    " pretended": 2524,
    "aced": 2525,
    " success": 2526,
    " screamed": 2527,
    " creative": 2528,
    "gest": 2529,
    " number": 2530,
    " answer": 2531,
    "uce": 2532,
    " search": 2533,
    " hello": 2534,
    " drum": 2535,
    "raid": 2536,
    " sold": 2537,
    " rich": 2538,
    " trust": 2539,
    " motor": 2540,
    " afraid": 2541,
    " Please": 2542,
    " ret": 2543,
    " bounce": 2544,
    " Together": 2545,
    " wearing": 2546,
    " fear": 2547,
    "iff": 2548,
    " return": 2549,
    "elp": 2550,
    " chase": 2551,
    " note": 2552,
    " daughter": 2553,
    " powerful": 2554,
    "vous": 2555,
    " icy": 2556,
    " van": 2557,
    " Go": 2558,
    " stret": 2559,
    " hero": 2560,
    " hang": 2561,
    " soap": 2562,
    " clown": 2563,
    " furry": 2564,
    " St": 2565,
    " rub": 2566,
    " Benny": 2567,
    "Stop": 2568,
    " smiling": 2569,
    " pri": 2570,
    " gun": 2571,
    " closet": 2572,
    " dig": 2573,
    " chocol": 2574,
    " boot": 2575,
    "scape": 2576,
    " snee": 2577,
    " ner": 2578,
    " dancing": 2579,
    " matter": 2580,
    " wis": 2581,
    " nervous": 2582,
    " feet": 2583,
    " protect": 2584,
    " noisy": 2585,
    "oppy": 2586,
    " shark": 2587,
    " rare": 2588,
    "pa": 2589,
    "isp": 2590,
    " lock": 2591,
    " ashamed": 2592,
    " sque": 2593,
    " clap": 2594,
    " tries": 2595,
    " reg": 2596,
    " test": 2597,
    " gold": 2598,
    " How": 2599,
    " Don": 2600,
    " gate": 2601,
    " sugar": 2602,
    " shadow": 2603,
    " kicked": 2604,
    " carried": 2605,
    " bean": 2606,
    " relie": 2607,
    " lamp": 2608,
    " disco": 2609,
    "Help": 2610,
    " tool": 2611,
    "rag": 2612,
    "imp": 2613,
    " tape": 2614,
    " print": 2615,
    " knee": 2616,
    " embarrassed": 2617,
    "obe": 2618,
    " class": 2619,
    "mb": 2620,
    " painted": 2621,
    " bridge": 2622,
    " chocolate": 2623,
    " gen": 2624,
    "Dad": 2625,
    " vase": 2626,
    " saf": 2627,
    " hur": 2628,
    " clock": 2629,
    " lead": 2630,
    " polite": 2631,
    " peaceful": 2632,
    " couch": 2633,
    " ap": 2634,
    "itter": 2635,
    " thick": 2636,
    " poor": 2637,
    " wand": 2638,
    " cand": 2639,
    " whisp": 2640,
    " bake": 2641,
    " Sp": 2642,
    "ensive": 2643,
    " drank": 2644,
    " stra": 2645,
    " crown": 2646,
    " Bear": 2647,
    " stir": 2648,
    " expensive": 2649,
    "ual": 2650,
    "robe": 2651,
    "lebr": 2652,
    " glass": 2653,
    " cage": 2654,
    " balloons": 2655,
    " decor": 2656,
    " gigg": 2657,
    " Bird": 2658,
    " mirr": 2659,
    " fat": 2660,
    " celebr": 2661,
    " march": 2662,
    " corner": 2663,
    "ym": 2664,
    " tele": 2665,
    " tent": 2666,
    " eld": 2667,
    "nic": 2668,
    " circle": 2669,
    " barn": 2670,
    " mirror": 2671,
    " become": 2672,
    " these": 2673,
    " Sometimes": 2674,
    "Tommy": 2675,
    " board": 2676,
    " balance": 2677,
    "ndpa": 2678,
    " mighty": 2679,
    " knocked": 2680,
    " bald": 2681,
    "arl": 2682,
    " picnic": 2683,
    " brush": 2684,
    " mysterious": 2685,
    " towel": 2686,
    " spread": 2687,
    " pump": 2688,
    " tasted": 2689,
    "ser": 2690,
    " glue": 2691,
    " Tiny": 2692,
    " log": 2693,
    " wouldn": 2694,
    "ventually": 2695,
    " ter": 2696,
    " mountain": 2697,
    " moms": 2698,
    "lves": 2699,
    " respect": 2700,
    "owed": 2701,
    " cri": 2702,
    " cap": 2703,
    "ote": 2704,
    "ced": 2705,
    " har": 2706,
    " jet": 2707,
    " dizzy": 2708,
    "ustr": 2709,
    " group": 2710,
    " feed": 2711,
    " clay": 2712,
    " yelled": 2713,
    " hose": 2714,
    " gener": 2715,
    " flag": 2716,
    " whale": 2717,
    " terri": 2718,
    "ness": 2719,
    " incred": 2720,
    " elderly": 2721,
    " adm": 2722,
    " 3": 2723,
    " Br": 2724,
    " organized": 2725,
    " mixed": 2726,
    " pres": 2727,
    " sco": 2728,
    " scare": 2729,
    " drawing": 2730,
    " clear": 2731,
    "any": 2732,
    " relieved": 2733,
    " pay": 2734,
    " lose": 2735,
    " incredible": 2736,
    " blow": 2737,
    " tick": 2738,
    " gas": 2739,
    " frustr": 2740,
    "ragile": 2741,
    " space": 2742,
    " mel": 2743,
    " famous": 2744,
    " chicken": 2745,
    " pray": 2746,
    " eggs": 2747,
    " stubb": 2748,
    " Some": 2749,
    "kn": 2750,
    " sock": 2751,
    " branches": 2752,
    "fic": 2753,
    " generous": 2754,
    " taught": 2755,
    " diffic": 2756,
    "alous": 2757,
    " fright": 2758,
    "ighed": 2759,
    "erries": 2760,
    " word": 2761,
    " rose": 2762,
    " stubborn": 2763,
    " jealous": 2764,
    " fragile": 2765,
    " berries": 2766,
    " ignor": 2767,
    " rough": 2768,
    " frustrated": 2769,
    " Al": 2770,
    " exploring": 2771,
    " collect": 2772,
    " team": 2773,
    " difficult": 2774,
    " washed": 2775,
    " tiger": 2776,
    " police": 2777,
    "known": 2778,
    " wrap": 2779,
    "lace": 2780,
    "dle": 2781,
    " which": 2782,
    " swan": 2783,
    " wake": 2784,
    " mis": 2785,
    " yarn": 2786,
    "ony": 2787,
    " horn": 2788,
    " dead": 2789,
    "ray": 2790,
    " necklace": 2791,
    " guess": 2792,
    " add": 2793,
    " understood": 2794,
    " gloomy": 2795,
    " unknown": 2796,
    " twist": 2797,
    " terrible": 2798,
    " burn": 2799,
    " Tr": 2800,
    " norm": 2801,
    " measure": 2802,
    " discover": 2803,
    "live": 2804,
    " weird": 2805,
    " waves": 2806,
    " frightened": 2807,
    " hears": 2808,
    " fine": 2809,
    "Where": 2810,
    " nosy": 2811,
    " normal": 2812,
    "issors": 2813,
    "cient": 2814,
    " sell": 2815,
    " creature": 2816,
    " wagon": 2817,
    " unus": 2818,
    " mic": 2819,
    " unusual": 2820,
    " unl": 2821,
    " dull": 2822,
    " comfortable": 2823,
    "ique": 2824,
    " fier": 2825,
    "anged": 2826,
    " dug": 2827,
    " breath": 2828,
    " square": 2829,
    " fierce": 2830,
    " ancient": 2831,
    " unique": 2832,
    "gu": 2833,
    "airs": 2834,
    " sunf": 2835,
    "ond": 2836,
    " stri": 2837,
    " stamp": 2838,
    " fool": 2839,
    " roar": 2840,
    " delicate": 2841,
    " finding": 2842,
    " spoiled": 2843,
    " finger": 2844,
    "inky": 2845,
    " wrote": 2846,
    " sword": 2847,
    " bathroom": 2848,
    " drop": 2849,
    " toast": 2850,
    "apped": 2851,
    " scissors": 2852,
    " witch": 2853,
    "und": 2854,
    "getable": 2855,
    " spent": 2856,
    " cone": 2857,
    "Together": 2858,
    " vegetable": 2859,
    " ind": 2860,
    " present": 2861,
    " jeep": 2862,
    "orry": 2863,
    " clum": 2864,
    " searched": 2865,
    "light": 2866,
    " covered": 2867,
    " Jimmy": 2868,
    " Mama": 2869,
    "anut": 2870,
    " thankful": 2871,
    " banana": 2872,
    "shine": 2873,
    "Jim": 2874,
    " potato": 2875,
    " ending": 2876,
    " '": 2877,
    " clumsy": 2878,
    " waff": 2879,
    " joined": 2880,
    " ord": 2881,
    " cats": 2882,
    "alk": 2883,
    " stones": 2884,
    " foolish": 2885,
    " cher": 2886,
    "yal": 2887,
    "xible": 2888,
    " wealthy": 2889,
    " exam": 2890,
    " seeds": 2891,
    " bloom": 2892,
    " Rex": 2893,
    " value": 2894,
    " trick": 2895,
    " relax": 2896,
    " adventur": 2897,
    " bitter": 2898,
    " er": 2899,
    " chest": 2900,
    " changed": 2901,
    " stat": 2902,
    " mov": 2903,
    " muff": 2904,
    " cries": 2905,
    " adventurous": 2906,
    "port": 2907,
    " sunshine": 2908,
    "erp": 2909,
    "Every": 2910,
    " pumpkin": 2911,
    " pige": 2912,
    "reen": 2913,
    "als": 2914,
    " bubbles": 2915,
    " asking": 2916,
    " toug": 2917,
    " lab": 2918,
    "ume": 2919,
    " explained": 2920,
    " stuff": 2921,
    " paws": 2922,
    " nods": 2923,
    "ants": 2924,
    " tells": 2925,
    " mask": 2926,
    " Brown": 2927,
    " moving": 2928,
    " knife": 2929,
    " rat": 2930,
    " tough": 2931,
    "selves": 2932,
    " nuts": 2933,
    " hairy": 2934,
    " gum": 2935,
    " flexible": 2936,
    " zip": 2937,
    " exciting": 2938,
    " yours": 2939,
    " marble": 2940,
    " loyal": 2941,
    " crazy": 2942,
    " jolly": 2943,
    " dove": 2944,
    "ory": 2945,
    " squee": 2946,
    " cab": 2947,
    "lph": 2948,
    " pepper": 2949,
    " pir": 2950,
    " Tw": 2951,
    " ham": 2952,
    " solve": 2953,
    " flash": 2954,
    "ates": 2955,
    "com": 2956,
    " statue": 2957,
    " obed": 2958,
    " stove": 2959,
    "mbre": 2960,
    " depend": 2961,
    "iddle": 2962,
    " umbre": 2963,
    " hay": 2964,
    "iant": 2965,
    " Will": 2966,
    " Ella": 2967,
    "irsty": 2968,
    "Who": 2969,
    "ying": 2970,
    " escape": 2971,
    " yourself": 2972,
    " asleep": 2973,
    " snacks": 2974,
    " dolph": 2975,
    " cabin": 2976,
    " times": 2977,
    " shore": 2978,
    " Ducky": 2979,
    " useful": 2980,
    " medic": 2981,
    " obedient": 2982,
    " jam": 2983,
    " fig": 2984,
    "ti": 2985,
    " sunflower": 2986,
    " knowing": 2987,
    "aken": 2988,
    " peanut": 2989,
    " medicine": 2990,
    " market": 2991,
    "Mum": 2992,
    " U": 2993,
    " No": 2994,
    "Here": 2995,
    " pants": 2996,
    " cro": 2997,
    " thirsty": 2998,
    " flute": 2999,
    " body": 3000,
    " While": 3001,
    "upid": 3002,
    "erpill": 3003,
    " hats": 3004,
    " caterpill": 3005,
    " Your": 3006,
    "Me": 3007,
    " smaller": 3008,
    " fridge": 3009,
    " avoc": 3010,
    "ground": 3011,
    " aunt": 3012,
    " Pe": 3013,
    " frown": 3014,
    " eager": 3015,
    "most": 3016,
    "land": 3017,
    "cil": 3018,
    " ref": 3019,
    " goat": 3020,
    " bored": 3021,
    "het": 3022,
    " mole": 3023,
    "unn": 3024,
    " middle": 3025,
    "gust": 3026,
    " shoot": 3027,
    " low": 3028,
    " four": 3029,
    " dependable": 3030,
    " dough": 3031,
    " almost": 3032,
    "ungle": 3033,
    "iness": 3034,
    "ict": 3035,
    " harm": 3036,
    " caterpillar": 3037,
    " disgust": 3038,
    " Many": 3039,
    "hetti": 3040,
    "aghetti": 3041,
    " pencil": 3042,
    " taken": 3043,
    " painting": 3044,
    " counted": 3045,
    "pes": 3046,
    "berry": 3047,
    "ident": 3048,
    " successful": 3049,
    " salad": 3050,
    " stupid": 3051,
    " scr": 3052,
    " impressive": 3053,
    " shine": 3054,
    "rilliant": 3055,
    "ependent": 3056,
    " spaghetti": 3057,
    " neighbor": 3058,
    " jungle": 3059,
    " bottom": 3060,
    " bedroom": 3061,
    "ours": 3062,
    "How": 3063,
    " goose": 3064,
    " cheap": 3065,
    " brilliant": 3066,
    " Instead": 3067,
    "Inside": 3068,
    " wander": 3069,
    " straw": 3070,
    " design": 3071,
    "axi": 3072,
    " stage": 3073,
    " fearful": 3074,
    "fted": 3075,
    " twig": 3076,
    " slipped": 3077,
    " tomato": 3078,
    " careless": 3079,
    " perform": 3080,
    "corn": 3081,
    " sighed": 3082,
    " disgusting": 3083,
    "ormous": 3084,
    " magn": 3085,
    " enormous": 3086,
    " choose": 3087,
    "ube": 3088,
    " independent": 3089,
    " cam": 3090,
    " borrow": 3091,
    " boats": 3092,
    "aser": 3093,
    " moder": 3094,
    " arrow": 3095,
    "met": 3096,
    " island": 3097,
    " parrot": 3098,
    " helmet": 3099,
    " taxi": 3100,
    " Andy": 3101,
    " umbrella": 3102,
    " popcorn": 3103,
    " modern": 3104,
    "cean": 3105,
    " tied": 3106,
    " ocean": 3107,
    " acorn": 3108,
    "opter": 3109,
    "icopter": 3110,
    " fountain": 3111,
    " True": 3112,
    "asses": 3113,
    " shoe": 3114,
    " helicopter": 3115,
    " carrots": 3116,
    "iable": 3117,
    " spotted": 3118,
    " pigeon": 3119,
    "urkey": 3120,
    " gar": 3121,
    " trump": 3122,
    " spring": 3123,
    " shiver": 3124,
    "atch": 3125,
    " meal": 3126,
    " houses": 3127,
    "Sorry": 3128,
    "Are": 3129,
    " trumpet": 3130,
    " orig": 3131,
    " hopping": 3132,
    " belonged": 3133,
    " ang": 3134,
    "inal": 3135,
    " serious": 3136,
    " crane": 3137,
    "Molly": 3138,
    " needle": 3139,
    " dest": 3140,
    "If": 3141,
    " quar": 3142,
    " pebble": 3143,
    " eng": 3144,
    " charm": 3145,
    "ilt": 3146,
    " tricks": 3147,
    " tube": 3148,
    " rug": 3149,
    " loll": 3150,
    "ipop": 3151,
    " brace": 3152,
    "io": 3153,
    " record": 3154,
    " turkey": 3155,
    " remind": 3156,
    "enny": 3157,
    "bers": 3158,
    " rag": 3159,
    " prize": 3160,
    " lollipop": 3161,
    " gets": 3162,
    " filthy": 3163,
    " collar": 3164,
    " sauce": 3165,
    " original": 3166,
    " tire": 3167,
    " raced": 3168,
    "dile": 3169,
    "codile": 3170,
    " needs": 3171,
    "erable": 3172,
    " triang": 3173,
    " shows": 3174,
    " quarrel": 3175,
    " miserable": 3176,
    " comb": 3177,
    " tor": 3178,
    " popular": 3179,
    " crayon": 3180,
    "There": 3181,
    "cles": 3182,
    " smoke": 3183,
    " rh": 3184,
    " passed": 3185,
    " gem": 3186,
    " charming": 3187,
    "pet": 3188,
    "edy": 3189,
    "berries": 3190,
    " humble": 3191,
    " cere": 3192,
    " guit": 3193,
    "amond": 3194,
    " tap": 3195,
    " kissed": 3196,
    " figure": 3197,
    " cryst": 3198,
    " compet": 3199,
    " thoughtful": 3200,
    " lean": 3201,
    " heal": 3202,
    " garage": 3203,
    " fis": 3204,
    " tank": 3205,
    " reliable": 3206,
    " mill": 3207,
    " playful": 3208,
    " carpet": 3209,
    " vine": 3210,
    " crocodile": 3211,
    " belt": 3212,
    " Sn": 3213,
    "ages": 3214,
    " vegetables": 3215,
    " tooth": 3216,
    " diamond": 3217,
    " cube": 3218,
    " movie": 3219,
    " onion": 3220,
    " lifted": 3221,
    " cereal": 3222,
    " pipe": 3223,
    " crawled": 3224,
    "iv": 3225,
    " magnet": 3226,
    "xious": 3227,
    " avocado": 3228,
    "hip": 3229,
    " picks": 3230,
    " eraser": 3231,
    " anxious": 3232,
    "aff": 3233,
    " roof": 3234,
    " env": 3235,
    " liz": 3236,
    " pian": 3237,
    " hammer": 3238,
    " knot": 3239,
    "inary": 3240,
    " torn": 3241,
    " guitar": 3242,
    " angel": 3243,
    " hurts": 3244,
    " Jenny": 3245,
    " piano": 3246,
    " harder": 3247,
    " hoop": 3248,
    "ilty": 3249,
    "ext": 3250,
    " guilty": 3251,
    " steal": 3252,
    " sink": 3253,
    " built": 3254,
    " beet": 3255,
    "ubby": 3256,
    "appy": 3257,
    " wip": 3258,
    " jug": 3259,
    " invited": 3260,
    " camera": 3261,
    " standing": 3262,
    " ruined": 3263,
    " loop": 3264,
    " grace": 3265,
    " engine": 3266,
    " boys": 3267,
    " chain": 3268,
    " licked": 3269,
    " friendship": 3270,
    " flashlight": 3271,
    " cheerful": 3272,
    " crystal": 3273,
    "Mama": 3274,
    " tears": 3275,
    " swe": 3276,
    " lizard": 3277,
    " yogurt": 3278,
    " study": 3279,
    " press": 3280,
    " compass": 3281,
    " pow": 3282,
    " dolphin": 3283,
    " comput": 3284,
    "oin": 3285,
    "cycle": 3286,
    " pasta": 3287,
    " ones": 3288,
    " crack": 3289,
    " chubby": 3290,
    "zed": 3291,
    " radio": 3292,
    " libr": 3293,
    " harmless": 3294,
    "ither": 3295,
    "atter": 3296,
    " wheat": 3297,
    " pengu": 3298,
    "opard": 3299,
    " rode": 3300,
    " nail": 3301,
    " feathers": 3302,
    " comet": 3303,
    " mush": 3304,
    " stream": 3305,
    " wrapped": 3306,
    " shape": 3307,
    " regular": 3308,
    " compassion": 3309,
    "coa": 3310,
    " shrimp": 3311,
    " happiness": 3312,
    "zzy": 3313,
    " scoot": 3314,
    " raven": 3315,
    " ears": 3316,
    " melon": 3317,
    " locked": 3318,
    " using": 3319,
    " sle": 3320,
    " planet": 3321,
    " fluffy": 3322,
    "cident": 3323,
    "ano": 3324,
    " troubled": 3325,
    " spill": 3326,
    " competit": 3327,
    " answered": 3328,
    " fork": 3329,
    " mug": 3330,
    " helpless": 3331,
    "comfortable": 3332,
    " uncomfortable": 3333,
    "oby": 3334,
    " meant": 3335,
    " hook": 3336,
    " walks": 3337,
    " disappoin": 3338,
    "lcano": 3339,
    " rep": 3340,
    "ellig": 3341,
    "ging": 3342,
    " suit": 3343,
    " envious": 3344,
    " computer": 3345,
    "ulu": 3346,
    "Jane": 3347,
    " mushroom": 3348,
    " intellig": 3349,
    " bracelet": 3350,
    " rid": 3351,
    " deaf": 3352,
    " coins": 3353,
    " leopard": 3354,
    " cost": 3355,
    " Today": 3356,
    " scale": 3357,
    "host": 3358,
    " shade": 3359,
    " poured": 3360,
    " Even": 3361,
    " squash": 3362,
    " restless": 3363,
    " whispered": 3364,
    " volcano": 3365,
    " pale": 3366,
    " lit": 3367,
    " helps": 3368,
    "chair": 3369,
    " ghost": 3370,
    " trunk": 3371,
    " cop": 3372,
    " accident": 3373,
    "oto": 3374,
    " half": 3375,
    " Sammy": 3376,
    " OK": 3377,
    " triangle": 3378,
    " mop": 3379,
    " giving": 3380,
    " wire": 3381,
    " diary": 3382,
    " beetle": 3383,
    " office": 3384,
    " case": 3385,
    " load": 3386,
    " father": 3387,
    "pack": 3388,
    " soldier": 3389,
    " persist": 3390,
    " armchair": 3391,
    " ordinary": 3392,
    "ebra": 3393,
    " sil": 3394,
    " bees": 3395,
    " practiced": 3396,
    " deliver": 3397,
    " dust": 3398,
    " crawl": 3399,
    " cocoa": 3400,
    " screen": 3401,
    " matt": 3402,
    "atient": 3403,
    " create": 3404,
    " spend": 3405,
    " Buzz": 3406,
    " motorcycle": 3407,
    " intelligent": 3408,
    " forward": 3409,
    "unnel": 3410,
    "essie": 3411,
    " tunnel": 3412,
    " skull": 3413,
    " nod": 3414,
    "omes": 3415,
    "anger": 3416,
    "Their": 3417,
    " zebra": 3418,
    " tem": 3419,
    "ulif": 3420,
    "ebook": 3421,
    " notebook": 3422,
    " cupboard": 3423,
    " harsh": 3424,
    " happening": 3425,
    " enc": 3426,
    " tag": 3427,
    "cream": 3428,
    " persistent": 3429,
    " caulif": 3430,
    "asing": 3431,
    " speed": 3432,
    " spun": 3433,
    " mailbox": 3434,
    " jellyfish": 3435,
    " compassionate": 3436,
    " graceful": 3437,
    "Timmy": 3438,
    " batter": 3439,
    " vide": 3440,
    " slept": 3441,
    " questions": 3442,
    " disappointed": 3443,
    "cut": 3444,
    " metal": 3445,
    " meat": 3446,
    " delight": 3447,
    " cauliflower": 3448,
    "anda": 3449,
    " spinning": 3450,
    " sniff": 3451,
    " judge": 3452,
    " boxes": 3453,
    "igator": 3454,
    " firew": 3455,
    " barber": 3456,
    "dom": 3457,
    " track": 3458,
    " melt": 3459,
    " destro": 3460,
    " candle": 3461,
    " sung": 3462,
    " shield": 3463,
    " impatient": 3464,
    "ye": 3465,
    "Sarah": 3466,
    " sailed": 3467,
    " Jake": 3468,
    " lying": 3469,
    " envel": 3470,
    " wishes": 3471,
    "ten": 3472,
    "Go": 3473,
    " muffin": 3474,
    " walls": 3475,
    " parade": 3476,
    " mattress": 3477,
    "ped": 3478,
    " returned": 3479,
    " gifted": 3480,
    "coli": 3481,
    "ccoli": 3482,
    " unlock": 3483,
    " trucks": 3484,
    " nicely": 3485,
    " base": 3486,
    " uncle": 3487,
    " shut": 3488,
    " louder": 3489,
    " desk": 3490,
    "elery": 3491,
    " pro": 3492,
    " alligator": 3493,
    " fu": 3494,
    " alert": 3495,
    " ador": 3496,
    " sleeping": 3497,
    " pit": 3498,
    " stretch": 3499,
    " mitten": 3500,
    " firework": 3501,
    " yoga": 3502,
    " celebrate": 3503,
    " coo": 3504,
    "uth": 3505,
    " Sh": 3506,
    "isted": 3507,
    " ways": 3508,
    " oat": 3509,
    " bounced": 3510,
    "lasses": 3511,
    "Bobo": 3512,
    " sunglasses": 3513,
    " celery": 3514,
    " skin": 3515,
    " bump": 3516,
    " acce": 3517,
    " eventually": 3518,
    " dreams": 3519,
    " adorable": 3520,
    " saying": 3521,
    " stum": 3522,
    " stack": 3523,
    " yaw": 3524,
    " veil": 3525,
    " inse": 3526,
    " homes": 3527,
    "ief": 3528,
    " skipped": 3529,
    " penny": 3530,
    " lively": 3531,
    "Gra": 3532,
    " thread": 3533,
    " scatter": 3534,
    " deter": 3535,
    " complet": 3536,
    " forth": 3537,
    " cact": 3538,
    " behave": 3539,
    " bin": 3540,
    " bicy": 3541,
    " themselves": 3542,
    " scooter": 3543,
    " resc": 3544,
    " distant": 3545,
    " biggest": 3546,
    " Lulu": 3547,
    "opl": 3548,
    "eropl": 3549,
    "aze": 3550,
    " guard": 3551,
    " compl": 3552,
    "azz": 3553,
    " temp": 3554,
    " stronger": 3555,
    " determ": 3556,
    " cricket": 3557,
    " chalk": 3558,
    " cable": 3559,
    " broccoli": 3560,
    " Emily": 3561,
    " week": 3562,
    " ticket": 3563,
    " excite": 3564,
    " aeropl": 3565,
    " sheet": 3566,
    " speak": 3567,
    " decide": 3568,
    " bushes": 3569,
    " pony": 3570,
    " counting": 3571,
    " cartoon": 3572,
    " surf": 3573,
    " insect": 3574,
    " competitive": 3575,
    " ed": 3576,
    "acht": 3577,
    " travel": 3578,
    " ignorant": 3579,
    "aky": 3580,
    " football": 3581,
    " folder": 3582,
    " bri": 3583,
    "ital": 3584,
    " vest": 3585,
    " polish": 3586,
    " hunt": 3587,
    " earth": 3588,
    " destroy": 3589,
    "ating": 3590,
    " enth": 3591,
    "ete": 3592,
    " radish": 3593,
    " library": 3594,
    " curt": 3595,
    "acket": 3596,
    " sort": 3597,
    " poem": 3598,
    " hosp": 3599,
    " hospital": 3600,
    " curtain": 3601,
    " cactus": 3602,
    " yacht": 3603,
    " send": 3604,
    "work": 3605,
    "usia": 3606,
    " waffle": 3607,
    " prun": 3608,
    " enthusia": 3609,
    "ulb": 3610,
    "otter": 3611,
    " rice": 3612,
    " laughs": 3613,
    " hotel": 3614,
    " grown": 3615,
    " otter": 3616,
    "vator": 3617,
    " showing": 3618,
    " mixer": 3619,
    " hedge": 3620,
    " attract": 3621,
    " camp": 3622,
    " Fr": 3623,
    "uring": 3624,
    " rubbed": 3625,
    " glove": 3626,
    " jacket": 3627,
    " elevator": 3628,
    " barrel": 3629,
    " lights": 3630,
    " glowing": 3631,
    " Mum": 3632,
    "ushion": 3633,
    "rage": 3634,
    "ision": 3635,
    " split": 3636,
    " raft": 3637,
    " stranger": 3638,
    " sneeze": 3639,
    " rod": 3640,
    " cushion": 3641,
    " yet": 3642,
    " poke": 3643,
    " envelope": 3644,
    "aged": 3645,
    " haircut": 3646,
    " frame": 3647,
    " attractive": 3648,
    " cob": 3649,
    "urb": 3650,
    " truth": 3651,
    " shells": 3652,
    " complain": 3653,
    "usie": 3654,
    " tummy": 3655,
    " station": 3656,
    " gathered": 3657,
    " encou": 3658,
    " bulb": 3659,
    " Little": 3660,
    " prep": 3661,
    " cleaning": 3662,
    "web": 3663,
    "head": 3664,
    " wheels": 3665,
    " bandage": 3666,
    " Pipp": 3667,
    "phone": 3668,
    " steak": 3669,
    " pole": 3670,
    " fireman": 3671,
    " cobweb": 3672,
    " order": 3673,
    " bull": 3674,
    " wool": 3675,
    " ple": 3676,
    " telephone": 3677,
    " cooked": 3678,
    "Jimmy": 3679,
    " disturb": 3680,
    " thu": 3681,
    " learning": 3682,
    " falls": 3683,
    "lies": 3684,
    " thief": 3685,
    "ention": 3686,
    "aving": 3687,
    ",â": 3688,
    " nurse": 3689,
    " loudly": 3690,
    "par": 3691,
    " powder": 3692,
    " once": 3693,
    " golf": 3694,
    " bicycle": 3695,
    " rot": 3696,
    " pointing": 3697,
    " flea": 3698,
    " Rose": 3699,
    "quit": 3700,
    " salt": 3701,
    " numbers": 3702,
    " club": 3703,
    " aeroplane": 3704,
    "utes": 3705,
    "esday": 3706,
    " univer": 3707,
    " oil": 3708,
    " Fo": 3709,
    " trap": 3710,
    " tray": 3711,
    " wiped": 3712,
    "quito": 3713,
    " mos": 3714,
    " penguin": 3715,
    "iew": 3716,
    " zipp": 3717,
    " vi": 3718,
    " attic": 3719,
    " journal": 3720,
    " city": 3721,
    "time": 3722,
    " switch": 3723,
    " short": 3724,
    " decorate": 3725,
    " Poppy": 3726,
    " spell": 3727,
    " skip": 3728,
    " pun": 3729,
    " mosquito": 3730,
    " led": 3731,
    " edge": 3732,
    "htub": 3733,
    "Billy": 3734,
    " soar": 3735,
    "ric": 3736,
    " tear": 3737,
    " quit": 3738,
    " post": 3739,
    " bathtub": 3740,
    " added": 3741,
    " view": 3742,
    "ilot": 3743,
    " root": 3744,
    " kay": 3745,
    " growl": 3746,
    " itself": 3747,
    "ject": 3748,
    "?\".": 3749,
    " separ": 3750,
    " buttons": 3751,
    " barking": 3752,
    "stic": 3753,
    " patch": 3754,
    " panda": 3755,
    " impro": 3756,
    " herb": 3757,
    " Tweet": 3758,
    " temple": 3759,
    "ushed": 3760,
    " wallet": 3761,
    " Polly": 3762,
    " minutes": 3763,
    " knows": 3764,
    " brothers": 3765,
    "fee": 3766,
    "ffee": 3767,
    " arg": 3768,
    "irit": 3769,
    " video": 3770,
    " reward": 3771,
    "ines": 3772,
    " playground": 3773,
    " purse": 3774,
    " itch": 3775,
    " aut": 3776,
    "leton": 3777,
    "keleton": 3778,
    "asher": 3779,
    " sweater": 3780,
    " enthusiastic": 3781,
    " support": 3782,
    " slides": 3783,
    " screw": 3784,
    " marry": 3785,
    " kindness": 3786,
    " meadow": 3787,
    " coal": 3788,
    "ik": 3789,
    " makeup": 3790,
    " pirate": 3791,
    " oy": 3792,
    "tern": 3793,
    "dest": 3794,
    " whip": 3795,
    " ten": 3796,
    " ink": 3797,
    " bags": 3798,
    " staff": 3799,
    "ache": 3800,
    " strugg": 3801,
    " handle": 3802,
    "washer": 3803,
    " pilot": 3804,
    " film": 3805,
    " driving": 3806,
    "ctop": 3807,
    " managed": 3808,
    " kayak": 3809,
    " dishwasher": 3810,
    " determined": 3811,
    "la": 3812,
    " weep": 3813,
    " tripped": 3814,
    " drawings": 3815,
    " complete": 3816,
    " Miss": 3817,
    "old": 3818,
    " dive": 3819,
    " coffee": 3820,
    "obile": 3821,
    "ctopus": 3822,
    " viol": 3823,
    " repair": 3824,
    " laser": 3825,
    " eye": 3826,
    " either": 3827,
    " cooking": 3828,
    " Toby": 3829,
    " missile": 3830,
    " cups": 3831,
    "omobile": 3832,
    " reading": 3833,
    " flame": 3834,
    " calling": 3835,
    " automobile": 3836,
    " Dan": 3837,
    "Give": 3838,
    " newsp": 3839,
    " modest": 3840,
    " hours": 3841,
    "play": 3842,
    " spirit": 3843,
    " ok": 3844,
    " means": 3845,
    " gym": 3846,
    " bathrobe": 3847,
    " People": 3848,
    " Peter": 3849,
    " violin": 3850,
    " pine": 3851,
    "hic": 3852,
    " vehic": 3853,
    " spear": 3854,
    " saus": 3855,
    " disappeared": 3856,
    " Tina": 3857,
    " wife": 3858,
    " sandbox": 3859,
    " mild": 3860,
    " magaz": 3861,
    "Fluffy": 3862,
    "arian": 3863,
    "Well": 3864,
    " seal": 3865,
    "seum": 3866,
    "case": 3867,
    "'d": 3868,
    " ur": 3869,
    " message": 3870,
    "bul": 3871,
    " Look": 3872,
    "Al": 3873,
    " museum": 3874,
    " cooler": 3875,
    "we": 3876,
    "umb": 3877,
    " whenever": 3878,
    " skeleton": 3879,
    " octopus": 3880,
    " lotion": 3881,
    " knock": 3882,
    " enjoying": 3883,
    "arry": 3884,
    " repe": 3885,
    " cell": 3886,
    "bulance": 3887,
    " those": 3888,
    " shocked": 3889,
    " pastry": 3890,
    " bathe": 3891,
    " perm": 3892,
    " miner": 3893,
    " hall": 3894,
    " ambulance": 3895,
    "ait": 3896,
    " giggled": 3897,
    " display": 3898,
    " troph": 3899,
    " pee": 3900,
    " flour": 3901,
    " bikes": 3902,
    "Bye": 3903,
    " novel": 3904,
    " fisher": 3905,
    " rever": 3906,
    " organize": 3907,
    " notice": 3908,
    " packed": 3909,
    " por": 3910,
    " pal": 3911,
    " stumbled": 3912,
    " ribb": 3913,
    " hanging": 3914,
    " early": 3915,
    " colour": 3916,
    " Birdy": 3917,
    "vet": 3918,
    "ophone": 3919,
    "ney": 3920,
    "Jill": 3921,
    " grapes": 3922,
    "nam": 3923,
    "ctory": 3924,
    "cing": 3925,
    " safely": 3926,
    " often": 3927,
    "illa": 3928,
    " hipp": 3929,
    " trophy": 3930,
    " tools": 3931,
    " mem": 3932,
    " pattern": 3933,
    "nger": 3934,
    "iki": 3935,
    " sight": 3936,
    "ready": 3937,
    "imney": 3938,
    " sparkly": 3939,
    " mule": 3940,
    " cane": 3941,
    " steps": 3942,
    " rolling": 3943,
    " remain": 3944,
    " fuel": 3945,
    "Re": 3946,
    " oyster": 3947,
    " hurry": 3948,
    " factory": 3949,
    " cardboard": 3950,
    " already": 3951,
    " suggest": 3952,
    " five": 3953,
    " drawer": 3954,
    " Everywhere": 3955,
    " bookcase": 3956,
    " baseball": 3957,
    "See": 3958,
    " dreamed": 3959,
    " check": 3960,
    " task": 3961,
    " sailor": 3962,
    " tut": 3963,
    " Snow": 3964,
    "nament": 3965,
    " peach": 3966,
    " palace": 3967,
    " package": 3968,
    " ow": 3969,
    " ornament": 3970,
    " bananas": 3971,
    "aroo": 3972,
    "angaroo": 3973,
    "ailable": 3974,
    " thunder": 3975,
    " thinking": 3976,
    " knight": 3977,
    " opens": 3978,
    " hippo": 3979,
    " chimney": 3980,
    " Rob": 3981,
    "ination": 3982,
    "Joe": 3983,
    " grandpa": 3984,
    " fastest": 3985,
    "ugged": 3986,
    "keep": 3987,
    "etty": 3988,
    " trash": 3989,
    " oak": 3990,
    " gear": 3991,
    " trail": 3992,
    " shaking": 3993,
    " picking": 3994,
    " olive": 3995,
    " newspaper": 3996,
    " kangaroo": 3997,
    " holds": 3998,
    " cord": 3999,
    " raz": 4000,
    " imagine": 4001,
    " fisherman": 4002,
    " discovered": 4003,
    "apers": 4004,
    " sett": 4005,
    " size": 4006,
    " bill": 4007,
    " Sunny": 4008,
    " Pete": 4009,
    " tutor": 4010,
    " freez": 4011,
    " available": 4012,
    " Bessie": 4013,
    "drobe": 4014,
    " wardrobe": 4015,
    " strawberry": 4016,
    " valu": 4017,
    " rake": 4018,
    " porch": 4019,
    " marched": 4020,
    " attach": 4021,
    "iron": 4022,
    " junk": 4023,
    "ense": 4024,
    " shrink": 4025,
    " realised": 4026,
    " magazine": 4027,
    " rise": 4028,
    " holes": 4029,
    " micr": 4030,
    " anch": 4031,
    " names": 4032,
    "Is": 4033,
    " drain": 4034,
    " microphone": 4035,
    " men": 4036,
    " blackboard": 4037,
    " Co": 4038,
    " napkin": 4039,
    " maze": 4040,
    "come": 4041,
    " stairs": 4042,
    " boots": 4043,
    " ax": 4044,
    "ceed": 4045,
    " juicy": 4046,
    " frogs": 4047,
    "ured": 4048,
    "ions": 4049,
    " ahead": 4050,
    "htray": 4051,
    " theater": 4052,
    " anchor": 4053,
    " zipper": 4054,
    " tightly": 4055,
    " lightning": 4056,
    " blin": 4057,
    " axe": 4058,
    " tornado": 4059,
    " swinging": 4060,
    " sne": 4061,
    " chess": 4062,
    "uper": 4063,
    "umber": 4064,
    "loo": 4065,
    "iest": 4066,
    " razor": 4067,
    " circles": 4068,
    " climbing": 4069,
    " billboard": 4070,
    " Kim": 4071,
    " growing": 4072,
    " gor": 4073,
    " cows": 4074,
    "igloo": 4075,
    " spilled": 4076,
    " against": 4077,
    " igloo": 4078,
    " resist": 4079,
    " rece": 4080,
    " jewelry": 4081,
    " trains": 4082,
    " cherries": 4083,
    " blueberries": 4084,
    " succeed": 4085,
    " may": 4086,
    " math": 4087,
    " ashtray": 4088,
    " rescue": 4089,
    " practice": 4090,
    "keeper": 4091,
    "ature": 4092,
    " stared": 4093,
    " distance": 4094,
    " dess": 4095,
    "Wait": 4096,
    " serve": 4097,
    " excitement": 4098,
    "reek": 4099,
    "bol": 4100,
    "body": 4101,
    "ampoo": 4102,
    " gasped": 4103,
    " fest": 4104,
    " creek": 4105,
    " Here": 4106,
    " Bub": 4107,
    "istol": 4108,
    " valuable": 4109,
    " painter": 4110,
    " opera": 4111,
    " cards": 4112,
    "ymbol": 4113,
    "urch": 4114,
    " vend": 4115,
    " allowed": 4116,
    "te": 4117,
    "lu": 4118,
    "ium": 4119,
    "Ow": 4120,
    " pinch": 4121,
    "ilet": 4122,
    " son": 4123,
    " roared": 4124,
    " Susie": 4125,
    " iron": 4126,
    "ival": 4127,
    "helf": 4128,
    "ately": 4129,
    " taller": 4130,
    " skirt": 4131,
    " separate": 4132,
    " offered": 4133,
    " leaving": 4134,
    " hunter": 4135,
    " toilet": 4136,
    " shampoo": 4137,
    " pretending": 4138,
    " pear": 4139,
    " meeting": 4140,
    " medal": 4141,
    " leash": 4142,
    " fingers": 4143,
    " ped": 4144,
    " bookshelf": 4145,
    "ron": 4146,
    "omed": 4147,
    " stops": 4148,
    " pistol": 4149,
    "ucet": 4150,
    " rhin": 4151,
    " neat": 4152,
    " freezer": 4153,
    " stickers": 4154,
    " papers": 4155,
    " dreaming": 4156,
    "undry": 4157,
    " vendor": 4158,
    " popped": 4159,
    " laundry": 4160,
    " lend": 4161,
    " faucet": 4162,
    "asis": 4163,
    "ionary": 4164,
    " improve": 4165,
    " hive": 4166,
    " Spike": 4167,
    "Em": 4168,
    " festival": 4169,
    " falling": 4170,
    " ceiling": 4171,
    "bles": 4172,
    " mint": 4173,
    " letters": 4174,
    " chose": 4175,
    "ictionary": 4176,
    "ckey": 4177,
    "aid": 4178,
    " tease": 4179,
    " inclu": 4180,
    " hockey": 4181,
    " oats": 4182,
    " quiz": 4183,
    " peeked": 4184,
    " church": 4185,
    "iches": 4186,
    "affe": 4187,
    " symbol": 4188,
    " rail": 4189,
    " anyway": 4190,
    " alarm": 4191,
    " Buzzy": 4192,
    " pressed": 4193,
    " Binky": 4194,
    "place": 4195,
    "ience": 4196,
    "fast": 4197,
    " sandwiches": 4198,
    " gorilla": 4199,
    " file": 4200,
    " blouse": 4201,
    " telling": 4202,
    " listening": 4203,
    " fog": 4204,
    " cliff": 4205,
    " stretched": 4206,
    " knob": 4207,
    " grill": 4208,
    " gain": 4209,
    " dessert": 4210,
    " dictionary": 4211,
    " basketball": 4212,
    " V": 4213,
    "ocer": 4214,
    "Daisy": 4215,
    " stirred": 4216,
    " oasis": 4217,
    " breakfast": 4218,
    " Give": 4219,
    "eer": 4220,
    " super": 4221,
    " chance": 4222,
    " belongs": 4223,
    " poked": 4224,
    " lawy": 4225,
    " disag": 4226,
    " beep": 4227,
    "vice": 4228,
    "riger": 4229,
    "rigerator": 4230,
    "aches": 4231,
    "vision": 4232,
    " rules": 4233,
    " peek": 4234,
    " label": 4235,
    " jumps": 4236,
    " hung": 4237,
    "oceros": 4238,
    " squirrels": 4239,
    " photo": 4240,
    " grand": 4241,
    "Little": 4242,
    " twir": 4243,
    " refrigerator": 4244,
    " object": 4245,
    " cabinet": 4246,
    "ogn": 4247,
    "gen": 4248,
    " sweetie": 4249,
    " snap": 4250,
    " lime": 4251,
    " anywhere": 4252,
    "xy": 4253,
    " towers": 4254,
    " television": 4255,
    " reind": 4256,
    " prov": 4257,
    " giraffe": 4258,
    " fireplace": 4259,
    " butterflies": 4260,
    "res": 4261,
    "na": 4262,
    "adium": 4263,
    " stadium": 4264,
    " mummy": 4265,
    " jail": 4266,
    " hut": 4267,
    " ext": 4268,
    " doesn": 4269,
    " rubber": 4270,
    " recogn": 4271,
    " jokes": 4272,
    " Are": 4273,
    "zag": 4274,
    " reindeer": 4275,
    " tub": 4276,
    " lie": 4277,
    " leaned": 4278,
    " ins": 4279,
    " happier": 4280,
    "lter": 4281,
    " waste": 4282,
    " spoke": 4283,
    " rhinoceros": 4284,
    " reverse": 4285,
    " perfume": 4286,
    " hanger": 4287,
    " agree": 4288,
    "igzag": 4289,
    "fa": 4290,
    " shelter": 4291,
    " point": 4292,
    " lawyer": 4293,
    " Dolly": 4294,
    " restaur": 4295,
    " helper": 4296,
    "peedy": 4297,
    " pleased": 4298,
    " invite": 4299,
    "scope": 4300,
    "roscope": 4301,
    "Mr": 4302,
    " wipe": 4303,
    "ected": 4304,
    "ations": 4305,
    "astic": 4306,
    " weigh": 4307,
    " swung": 4308,
    " pastel": 4309,
    " lumber": 4310,
    " Kiki": 4311,
    " Boun": 4312,
    " tuna": 4313,
    "Did": 4314,
    " restaurant": 4315,
    " windows": 4316,
    " obser": 4317,
    " comfort": 4318,
    " Pippin": 4319,
    " sent": 4320,
    " bury": 4321,
    " Zoom": 4322,
    " squeeze": 4323,
    " extra": 4324,
    "amber": 4325,
    " happens": 4326,
    " advice": 4327,
    "Ouch": 4328,
    " unite": 4329,
    " lip": 4330,
    " accidentally": 4331,
    " Teddy": 4332,
    "rmomet": 4333,
    " hate": 4334,
    " airport": 4335,
    "Mummy": 4336,
    " weather": 4337,
    " vehicle": 4338,
    "rmometer": 4339,
    "cu": 4340,
    " disappear": 4341,
    " chamber": 4342,
    " silver": 4343,
    " plates": 4344,
    " Where": 4345,
    "night": 4346,
    " grape": 4347,
    " beef": 4348,
    "stairs": 4349,
    " problems": 4350,
    "alend": 4351,
    " slipp": 4352,
    " nature": 4353,
    " calend": 4354,
    " buckle": 4355,
    "!\".": 4356,
    " thermometer": 4357,
    "inarian": 4358,
    "eterinarian": 4359,
    " wigg": 4360,
    " raise": 4361,
    " passport": 4362,
    " cudd": 4363,
    " veterinarian": 4364,
    " unpack": 4365,
    " riding": 4366,
    " blinked": 4367,
    " admire": 4368,
    " sounded": 4369,
    " imagined": 4370,
    " Zip": 4371,
    " Betty": 4372,
    "urnit": 4373,
    "urniture": 4374,
    "rod": 4375,
    " sofa": 4376,
    " musician": 4377,
    " inf": 4378,
    " slip": 4379,
    " favour": 4380,
    " costume": 4381,
    " accept": 4382,
    " Bubbles": 4383,
    " page": 4384,
    " introd": 4385,
    " furniture": 4386,
    " dancer": 4387,
    " battery": 4388,
    " above": 4389,
    " sadly": 4390,
    " caring": 4391,
    " calendar": 4392,
    " bet": 4393,
    " Mrs": 4394,
    " sausage": 4395,
    " refused": 4396,
    " Grandpa": 4397,
    "angu": 4398,
    "stri": 4399,
    "asp": 4400,
    " chasing": 4401,
    " Alice": 4402,
    " trade": 4403,
    " swamp": 4404,
    " suff": 4405,
    " sub": 4406,
    "render": 4407,
    "alley": 4408,
    " stom": 4409,
    " microscope": 4410,
    " lic": 4411,
    " lawn": 4412,
    " langu": 4413,
    " favourite": 4414,
    "low": 4415,
    "del": 4416,
    " valley": 4417,
    " Ow": 4418,
    "ummer": 4419,
    " warned": 4420,
    " Mar": 4421,
    " missing": 4422,
    " excitedly": 4423,
    " Red": 4424,
    "Mary": 4425,
    " shower": 4426,
    " meas": 4427,
    "Ch": 4428,
    " saving": 4429,
    " goal": 4430,
    " Pandy": 4431,
    "med": 4432,
    " socks": 4433,
    " mystery": 4434,
    " mall": 4435,
    " fort": 4436,
    " cur": 4437,
    " surprises": 4438,
    " searching": 4439,
    " winter": 4440,
    "ef": 4441,
    " stable": 4442,
    " soil": 4443,
    " zoomed": 4444,
    " mistakes": 4445,
    " pushing": 4446,
    "ison": 4447,
    " prevent": 4448,
    " incre": 4449,
    "mend": 4450,
    " yield": 4451,
    " starts": 4452,
    " ostri": 4453,
    " monkeys": 4454,
    " human": 4455,
    " carrying": 4456,
    " Carl": 4457,
    " nation": 4458,
    " lid": 4459,
    " gro": 4460,
    " fixing": 4461,
    " argue": 4462,
    " Speedy": 4463,
    " spoil": 4464,
    " shovel": 4465,
    " pair": 4466,
    " model": 4467,
    "elcome": 4468,
    " bent": 4469,
    " Bill": 4470,
    " shakes": 4471,
    " claw": 4472,
    "ommend": 4473,
    "ricane": 4474,
    " sunset": 4475,
    " mineral": 4476,
    " license": 4477,
    " ignore": 4478,
    " Ru": 4479,
    " finds": 4480,
    " suggested": 4481,
    " summer": 4482,
    " rac": 4483,
    " chairs": 4484,
    "thank": 4485,
    " sniffed": 4486,
    " crib": 4487,
    " brick": 4488,
    " â": 4489,
    " float": 4490,
    " Hel": 4491,
    " Freddy": 4492,
    " recommend": 4493,
    " pages": 4494,
    " Y": 4495,
    " admired": 4496,
    " Olive": 4497,
    "icky": 4498,
    "chan": 4499,
    " plastic": 4500,
    " ribbon": 4501,
    " respectful": 4502,
    " art": 4503,
    " Cl": 4504,
    " puddles": 4505,
    " frowned": 4506,
    " steam": 4507,
    " shouts": 4508,
    " Pat": 4509,
    " strip": 4510,
    " infant": 4511,
    " handed": 4512,
    "eor": 4513,
    "Your": 4514,
    " apron": 4515,
    "aspoon": 4516,
    " unif": 4517,
    " rained": 4518,
    " classroom": 4519,
    " brightly": 4520,
    "veal": 4521,
    "cage": 4522,
    " uniform": 4523,
    " proudly": 4524,
    " ended": 4525,
    " birdcage": 4526,
    " berry": 4527,
    "iday": 4528,
    "chanic": 4529,
    " surrender": 4530,
    " subway": 4531,
    " sticker": 4532,
    " replace": 4533,
    " pup": 4534,
    " aw": 4535,
    "aked": 4536,
    " mechanic": 4537,
    " points": 4538,
    "eorge": 4539,
    " rushed": 4540,
    " prepare": 4541,
    " ostrich": 4542,
    " Big": 4543,
    "Yay": 4544,
    " beans": 4545,
    " Bow": 4546,
    "Next": 4547,
    " wine": 4548,
    " trem": 4549,
    " supply": 4550,
    " slippery": 4551,
    " reveal": 4552,
    " hoping": 4553,
    " reef": 4554,
    " kneel": 4555,
    " giggle": 4556,
    " cherry": 4557,
    "ola": 4558,
    "Grandma": 4559,
    " hol": 4560,
    " choice": 4561,
    "ince": 4562,
    " holiday": 4563,
    " event": 4564,
    " doors": 4565,
    " Ellie": 4566,
    " weap": 4567,
    " menu": 4568,
    " lives": 4569,
    " impressed": 4570,
    " Would": 4571,
    " appl": 4572,
    " Next": 4573,
    "ecause": 4574,
    " regret": 4575,
    " pulls": 4576,
    " kinds": 4577,
    "men": 4578,
    "..": 4579,
    " thanks": 4580,
    " sprayed": 4581,
    " panic": 4582,
    " country": 4583,
    " Mike": 4584,
    "apping": 4585,
    "Will": 4586,
    " tip": 4587,
    " shone": 4588,
    " language": 4589,
    " grabs": 4590,
    " delay": 4591,
    " barks": 4592,
    "uggage": 4593,
    " teaspoon": 4594,
    " softly": 4595,
    " older": 4596,
    " luggage": 4597,
    " forgave": 4598,
    " fre": 4599,
    " breat": 4600,
    " Mandy": 4601,
    " player": 4602,
    " leak": 4603,
    " dear": 4604,
    " colourful": 4605,
    "olog": 4606,
    "imed": 4607,
    " shoulder": 4608,
    " mustache": 4609,
    "aul": 4610,
    "Yuck": 4611,
    " lions": 4612,
    " fought": 4613,
    " apolog": 4614,
    "ucture": 4615,
    "sity": 4616,
    " groc": 4617,
    "wards": 4618,
    " structure": 4619,
    " sneezed": 4620,
    " repeat": 4621,
    " putting": 4622,
    " feelings": 4623,
    " brighter": 4624,
    " Un": 4625,
    "icer": 4626,
    "ero": 4627,
    "Qu": 4628,
    " copper": 4629,
    " Lee": 4630,
    " sudden": 4631,
    " clapping": 4632,
    " vac": 4633,
    " somewhere": 4634,
    " remove": 4635,
    " End": 4636,
    " sticky": 4637,
    " hurricane": 4638,
    " evening": 4639,
    " beg": 4640,
    " mass": 4641,
    "rise": 4642,
    " restore": 4643,
    "lex": 4644,
    "aud": 4645,
    "ason": 4646,
    " leather": 4647,
    " throwing": 4648,
    " sty": 4649,
    " matches": 4650,
    " delighted": 4651,
    " Help": 4652,
    " Fl": 4653,
    " port": 4654,
    " shivering": 4655,
    " sigh": 4656,
    " rush": 4657,
    " keeping": 4658,
    " cared": 4659,
    " Or": 4660,
    " suffer": 4661,
    " bend": 4662,
    "hero": 4663,
    " superhero": 4664,
    " alive": 4665,
    "Buddy": 4666,
    " sunrise": 4667,
    " pushes": 4668,
    " spade": 4669,
    " fresh": 4670,
    " row": 4671,
    "ement": 4672,
    "cuss": 4673,
    "cast": 4674,
    " trusted": 4675,
    " meowed": 4676,
    " Lilly": 4677,
    "hter": 4678,
    " unh": 4679,
    " squeezed": 4680,
    " reminded": 4681,
    " laughter": 4682,
    " drops": 4683,
    " steel": 4684,
    " discuss": 4685,
    " Zoomy": 4686,
    " Elly": 4687,
    "erc": 4688,
    "Alice": 4689,
    " splashing": 4690,
    " claws": 4691,
    " chickens": 4692,
    "oe": 4693,
    " skill": 4694,
    " Ted": 4695,
    "All": 4696,
    " yawned": 4697,
    " starting": 4698,
    " sandcast": 4699,
    " ener": 4700,
    " castles": 4701,
    "cond": 4702,
    "Daddy": 4703,
    " shrugged": 4704,
    " explored": 4705,
    " applaud": 4706,
    " ranch": 4707,
    " content": 4708,
    " chirp": 4709,
    " breaks": 4710,
    " parts": 4711,
    " network": 4712,
    " flood": 4713,
    " crossed": 4714,
    " examine": 4715,
    " second": 4716,
    " provide": 4717,
    " dare": 4718,
    " dishes": 4719,
    " weapon": 4720,
    " minute": 4721,
    " x": 4722,
    "riage": 4723,
    " stud": 4724,
    " letting": 4725,
    " bumped": 4726,
    "bor": 4727,
    "Mark": 4728,
    " offer": 4729,
    "year": 4730,
    "heart": 4731,
    " unhappy": 4732,
    " toe": 4733,
    " exerc": 4734,
    " dem": 4735,
    " scratch": 4736,
    " prune": 4737,
    " freeze": 4738,
    " flies": 4739,
    "Lisa": 4740,
    " snowball": 4741,
    " snugg": 4742,
    " eaten": 4743,
    "quest": 4744,
    " streng": 4745,
    " Dave": 4746,
    "ifi": 4747,
    " request": 4748,
    " prayed": 4749,
    " invit": 4750,
    " courage": 4751,
    " rabbits": 4752,
    " mention": 4753,
    " flapped": 4754,
    " bears": 4755,
    " strength": 4756,
    " harbor": 4757,
    " badly": 4758,
    "eration": 4759,
    " score": 4760,
    " pigs": 4761,
    " demand": 4762,
    "Ann": 4763,
    " weight": 4764,
    " tremble": 4765,
    " smells": 4766,
    " imagination": 4767,
    " heads": 4768,
    " vacation": 4769,
    " tracks": 4770,
    " ing": 4771,
    "inking": 4772,
    "arlie": 4773,
    " throws": 4774,
    " sparkled": 4775,
    " checked": 4776,
    " myself": 4777,
    " baking": 4778,
    " sweetheart": 4779,
    " settle": 4780,
    " Jazz": 4781,
    " Coco": 4782,
    " spots": 4783,
    " horses": 4784,
    "redient": 4785,
    " punish": 4786,
    " ingredient": 4787,
    " greedy": 4788,
    " wre": 4789,
    " marriage": 4790,
    " given": 4791,
    " heat": 4792,
    " burned": 4793,
    " brain": 4794,
    " Sque": 4795,
    " whisper": 4796,
    " calls": 4797,
    " bouncing": 4798,
    " Hoppy": 4799,
    "acked": 4800,
    "Ready": 4801,
    "ophie": 4802,
    "ib": 4803,
    "Emma": 4804,
    "Before": 4805,
    " thumb": 4806,
    " planes": 4807,
    " Sm": 4808,
    " permit": 4809,
    " hopes": 4810,
    " hearts": 4811,
    " expect": 4812,
    " coats": 4813,
    " Penny": 4814,
    "ittens": 4815,
    " rooms": 4816,
    " massage": 4817,
    " luck": 4818,
    " paid": 4819,
    " exper": 4820,
    " bother": 4821,
    " enter": 4822,
    " energy": 4823,
    " raining": 4824,
    " news": 4825,
    " ingredients": 4826,
    " buzz": 4827,
    "unday": 4828,
    " hills": 4829,
    " furt": 4830,
    " candles": 4831,
    " sew": 4832,
    " planned": 4833,
    " pirates": 4834,
    " insisted": 4835,
    " excla": 4836,
    " equ": 4837,
    " crow": 4838,
    "Welcome": 4839,
    " palm": 4840,
    " ignored": 4841,
    " apart": 4842,
    "ially": 4843,
    " universe": 4844,
    " strike": 4845,
    " hist": 4846,
    " blowing": 4847,
    " Sunday": 4848,
    " Annie": 4849,
    "uesday": 4850,
    "isty": 4851,
    " soak": 4852,
    " history": 4853,
    " further": 4854,
    " cheek": 4855,
    " beauty": 4856,
    " pedal": 4857,
    " jogged": 4858,
    " floated": 4859,
    " Grace": 4860,
    "spec": 4861,
    " whistled": 4862,
    " exclaimed": 4863,
    " believed": 4864,
    " Under": 4865,
    " style": 4866,
    " observe": 4867,
    " cape": 4868,
    " Have": 4869,
    "house": 4870,
    "Mimi": 4871,
    " placed": 4872,
    " operation": 4873,
    " introduce": 4874,
    "specially": 4875,
    " Dog": 4876,
    "ffic": 4877,
    " upstairs": 4878,
    " Sk": 4879,
    "mare": 4880,
    " Ro": 4881,
    " Bounce": 4882,
    " wreck": 4883,
    " vroom": 4884,
    " solved": 4885,
    " especially": 4886,
    " heel": 4887,
    " hon": 4888,
    " comf": 4889,
    " aftern": 4890,
    " urge": 4891,
    " pur": 4892,
    " afternoon": 4893,
    " Tuesday": 4894,
    " Fox": 4895,
    "nesday": 4896,
    "ednesday": 4897,
    "Jenny": 4898,
    " traffic": 4899,
    " tide": 4900,
    " sandcastle": 4901,
    " See": 4902,
    "ween": 4903,
    "tain": 4904,
    "raged": 4905,
    " easily": 4906,
    " between": 4907,
    "yth": 4908,
    "resses": 4909,
    "ecting": 4910,
    " wags": 4911,
    " scold": 4912,
    " nightmare": 4913,
    " marbles": 4914,
    " increase": 4915,
    " Sharing": 4916,
    " \n": 4917,
    "ythm": 4918,
    "ges": 4919,
    " sport": 4920,
    " slap": 4921,
    " prunes": 4922,
    " grocery": 4923,
    "Sh": 4924,
    " twisted": 4925,
    " lemons": 4926,
    " following": 4927,
    " Fifi": 4928,
    "otten": 4929,
    "igi": 4930,
    " warn": 4931,
    " vel": 4932,
    " university": 4933,
    " Snowy": 4934,
    " navy": 4935,
    " mailman": 4936,
    "bbing": 4937,
    " wisdom": 4938,
    " waffles": 4939,
    " tug": 4940,
    " poppy": 4941,
    " crash": 4942,
    " closely": 4943,
    " chewed": 4944,
    " blueberry": 4945,
    " Wednesday": 4946,
    " Owl": 4947,
    "xygen": 4948,
    "ops": 4949,
    " include": 4950,
    " bouncy": 4951,
    " waving": 4952,
    " stomach": 4953,
    " nobody": 4954,
    " moves": 4955,
    " entered": 4956,
    " Squeaky": 4957,
    " Mummy": 4958,
    " Harry": 4959,
    " Ab": 4960,
    " yucky": 4961,
    " velvet": 4962,
    " sailing": 4963,
    " gaz": 4964,
    " encourage": 4965,
    " Mittens": 4966,
    " Lizzy": 4967,
    " tour": 4968,
    " stamps": 4969,
    " below": 4970,
    " Finny": 4971,
    " shopkeeper": 4972,
    " rhythm": 4973,
    " poison": 4974,
    "reat": 4975,
    " struggle": 4976,
    " sir": 4977,
    " recognize": 4978,
    " pulling": 4979,
    "ites": 4980,
    "ari": 4981,
    "With": 4982,
    " stair": 4983,
    " spike": 4984,
    " scrat": 4985,
    " planted": 4986,
    " follows": 4987,
    " growled": 4988,
    "ipment": 4989,
    " writing": 4990,
    " olives": 4991,
    " conf": 4992,
    " Whenever": 4993,
    " zigzag": 4994,
    " yawn": 4995,
    " teaching": 4996,
    " sits": 4997,
    " hurting": 4998,
    " equipment": 4999,
    " Lola": 5000,
    " Alex": 5001,
    " neighbour": 5002,
    " digg": 5003,
    "anges": 5004,
    "Bella": 5005,
    " shined": 5006,
    " scoop": 5007,
    " quite": 5008,
    " pad": 5009,
    "ring": 5010,
    " inst": 5011,
    " digging": 5012,
    " Bee": 5013,
    "quake": 5014,
    " snuggled": 5015,
    " landscape": 5016,
    " gifts": 5017,
    " folded": 5018,
    " Lucky": 5019,
    "uct": 5020,
    "izes": 5021,
    " wob": 5022,
    " exercise": 5023,
    " backpack": 5024,
    " agre": 5025,
    "cc": 5026,
    "Everyone": 5027,
    " winning": 5028,
    " strawberries": 5029,
    " earthquake": 5030,
    " blood": 5031,
    "reeze": 5032,
    "arnt": 5033,
    " learnt": 5034,
    " dressed": 5035,
    " Is": 5036,
    " Everything": 5037,
    "illie": 5038,
    "ipping": 5039,
    "emember": 5040,
    " ble": 5041,
    "right": 5042,
    "Bl": 5043,
    " paused": 5044,
    " dried": 5045,
    " wagging": 5046,
    " peanuts": 5047,
    " jazz": 5048,
    " Who": 5049,
    " George": 5050,
    "ories": 5051,
    " worms": 5052,
    " vanished": 5053,
    " Spark": 5054,
    "hest": 5055,
    " twisty": 5056,
    " racing": 5057,
    " licks": 5058,
    " image": 5059,
    " blink": 5060,
    " Bluey": 5061,
    "Woof": 5062,
    " warning": 5063,
    " simp": 5064,
    " dresses": 5065,
    "hood": 5066,
    "These": 5067,
    "Le": 5068,
    " worth": 5069,
    " wandered": 5070,
    " snail": 5071,
    " fireworks": 5072,
    " captain": 5073,
    " bur": 5074,
    "sed": 5075,
    "look": 5076,
    " â": 5077,
    " treasures": 5078,
    " sorts": 5079,
    " oh": 5080,
    " encouraged": 5081,
    " Good": 5082,
    " Gigi": 5083,
    "inkle": 5084,
    "ddy": 5085,
    " underground": 5086,
    " shouting": 5087,
    " rang": 5088,
    " eagerly": 5089,
    " creatures": 5090,
    "enry": 5091,
    "Remy": 5092,
    " web": 5093,
    " exit": 5094,
    " buried": 5095,
    "ucked": 5096,
    "osie": 5097,
    " collected": 5098,
    " manage": 5099,
    " balan": 5100,
    " pinched": 5101,
    " deeper": 5102,
    " breathe": 5103,
    "mm": 5104,
    "apa": 5105,
    " prett": 5106,
    " memory": 5107,
    " catching": 5108,
    "ising": 5109,
    " ideas": 5110,
    " God": 5111,
    "oral": 5112,
    "gie": 5113,
    " quietly": 5114,
    "isses": 5115,
    "Bobby": 5116,
    " zipped": 5117,
    " attention": 5118,
    "elvet": 5119,
    " seats": 5120,
    " lemonade": 5121,
    " kisses": 5122,
    " counter": 5123,
    " blankets": 5124,
    "etch": 5125,
    " washing": 5126,
    " snapped": 5127,
    " Su": 5128,
    " potatoes": 5129,
    " oxygen": 5130,
    " hers": 5131,
    " allow": 5132,
    "rec": 5133,
    "Not": 5134,
    " invitation": 5135,
    " Wally": 5136,
    " Paul": 5137,
    "iers": 5138,
    " during": 5139,
    " Ruby": 5140,
    "ah": 5141,
    " worse": 5142,
    " punished": 5143,
    " price": 5144,
    " paints": 5145,
    "va": 5146,
    "Today": 5147,
    " skills": 5148,
    "ived": 5149,
    "Fred": 5150,
    " receive": 5151,
    " muddy": 5152,
    " memories": 5153,
    " kitty": 5154,
    " Pinky": 5155,
    "orted": 5156,
    " watered": 5157,
    " understanding": 5158,
    " puzzles": 5159,
    " nowhere": 5160,
    " mama": 5161,
    " jewels": 5162,
    " celebrated": 5163,
    " cakes": 5164,
    " beds": 5165,
    "nce": 5166,
    "Because": 5167,
    " vanish": 5168,
    " release": 5169,
    "looking": 5170,
    "ippy": 5171,
    " visited": 5172,
    " shouldn": 5173,
    " pies": 5174,
    " lung": 5175,
    " disagree": 5176,
    " sip": 5177,
    " reaches": 5178,
    " fro": 5179,
    " baked": 5180,
    "aggie": 5181,
    " sliding": 5182,
    " signs": 5183,
    " safari": 5184,
    " collection": 5185,
    "unately": 5186,
    "Surpr": 5187,
    " tong": 5188,
    " spoons": 5189,
    " soldiers": 5190,
    " jogging": 5191,
    " hadn": 5192,
    " difference": 5193,
    " Sophie": 5194,
    "ecture": 5195,
    " weeping": 5196,
    " Tilly": 5197,
    " resp": 5198,
    " pets": 5199,
    " acorns": 5200,
    " seeing": 5201,
    " sizes": 5202,
    " Boo": 5203,
    "pted": 5204,
    "Jen": 5205,
    " daisy": 5206,
    " lecture": 5207,
    "sterday": 5208,
    "reci": 5209,
    "esterday": 5210,
    " raised": 5211,
    " destroyed": 5212,
    " Finn": 5213,
    "ictory": 5214,
    "ction": 5215,
    " tomatoes": 5216,
    " scattered": 5217,
    " fallen": 5218,
    " brings": 5219,
    " Eventually": 5220,
    "sit": 5221,
    " experience": 5222,
    " appreci": 5223,
    " Velvet": 5224,
    " Toto": 5225,
    "ups": 5226,
    "icing": 5227,
    " pitch": 5228,
    " glo": 5229,
    " Smith": 5230,
    " Joey": 5231,
    "ury": 5232,
    " zero": 5233,
    " twirled": 5234,
    " easier": 5235,
    " bleed": 5236,
    " accepted": 5237,
    "do": 5238,
    "ding": 5239,
    "avid": 5240,
    " sprink": 5241,
    " gazed": 5242,
    " flap": 5243,
    " bowed": 5244,
    " Zara": 5245,
    " plays": 5246,
    " kingdom": 5247,
    " Qu": 5248,
    "ux": 5249,
    "omeday": 5250,
    " winner": 5251,
    " King": 5252,
    " Danny": 5253,
    " welcomed": 5254,
    " bricks": 5255,
    " urged": 5256,
    " remained": 5257,
    " mice": 5258,
    " Rosie": 5259,
    " Johnny": 5260,
    " straight": 5261,
    " married": 5262,
    " climbs": 5263,
    " bye": 5264,
    " Charlie": 5265,
    "vest": 5266,
    "rin": 5267,
    " toes": 5268,
    " sorting": 5269,
    " someday": 5270,
    " pillows": 5271,
    " pears": 5272,
    " lux": 5273,
    " cutting": 5274,
    " bones": 5275,
    " attached": 5276,
    "ccer": 5277,
    " ruin": 5278,
    " ours": 5279,
    " elephants": 5280,
    " Rock": 5281,
    " unlocked": 5282,
    " petals": 5283,
    "sters": 5284,
    "aded": 5285,
    "Surprise": 5286,
    "Mandy": 5287,
    " shot": 5288,
    " shock": 5289,
    " muffins": 5290,
    " lined": 5291,
    " forgotten": 5292,
    "ents": 5293,
    " pupil": 5294,
    " printer": 5295,
    "fortunately": 5296,
    "Goodbye": 5297,
    "'ve": 5298,
    " soccer": 5299,
    " gloves": 5300,
    " cub": 5301,
    " cras": 5302,
    " appear": 5303,
    " Tony": 5304,
    "Moral": 5305,
    " created": 5306,
    " brus": 5307,
    "ssible": 5308,
    " tongue": 5309,
    " received": 5310,
    " isn": 5311,
    " Tuna": 5312,
    " Each": 5313,
    " hits": 5314,
    " breaking": 5315,
    "ips": 5316,
    "Yum": 5317,
    " screams": 5318,
    " since": 5319,
    " prints": 5320,
    " marching": 5321,
    " grin": 5322,
    " drinks": 5323,
    "Blue": 5324,
    " trapped": 5325,
    " measured": 5326,
    " guessed": 5327,
    " fields": 5328,
    " victory": 5329,
    " season": 5330,
    " golden": 5331,
    " firef": 5332,
    " cartoons": 5333,
    " bites": 5334,
    " Its": 5335,
    "chie": 5336,
    "cus": 5337,
    " skipping": 5338,
    " meow": 5339,
    "aped": 5340,
    " tonight": 5341,
    " instr": 5342,
    " fash": 5343,
    " Papa": 5344,
    " rested": 5345,
    " pra": 5346,
    " mixing": 5347,
    " decorations": 5348,
    " acted": 5349,
    " Before": 5350,
    " watches": 5351,
    " printed": 5352,
    " fashion": 5353,
    "medi": 5354,
    " voices": 5355,
    " oranges": 5356,
    " famil": 5357,
    " Maria": 5358,
    "mediately": 5359,
    "ishes": 5360,
    " simple": 5361,
    "ores": 5362,
    " luxury": 5363,
    " Pip": 5364,
    " Chicky": 5365,
    " Baby": 5366,
    " tore": 5367,
    " stuffed": 5368,
    " slice": 5369,
    " relaxed": 5370,
    " alright": 5371,
    "ety": 5372,
    "akes": 5373,
    " teasing": 5374,
    " stitch": 5375,
    " selling": 5376,
    " scolded": 5377,
    " floating": 5378,
    "eath": 5379,
    "!'": 5380,
    " none": 5381,
    " mentioned": 5382,
    "ishing": 5383,
    "anna": 5384,
    "Cat": 5385,
    " surround": 5386,
    " ringing": 5387,
    " melted": 5388,
    " bang": 5389,
    " These": 5390,
    "une": 5391,
    "boo": 5392,
    " mouths": 5393,
    " invest": 5394,
    " hurried": 5395,
    " firemen": 5396,
    " fed": 5397,
    " muscles": 5398,
    " laid": 5399,
    "ship": 5400,
    "Really": 5401,
    " patterns": 5402,
    " kicking": 5403,
    " investig": 5404,
    " Hope": 5405,
    "kins": 5406,
    " whistling": 5407,
    " matched": 5408,
    " drinking": 5409,
    " dared": 5410,
    " breeze": 5411,
    " May": 5412,
    "choo": 5413,
    " Millie": 5414,
    " Froggy": 5415,
    "Momo": 5416,
    " measuring": 5417,
    " fishing": 5418,
    " disagreed": 5419,
    " sorted": 5420,
    " chores": 5421,
    "ded": 5422,
    " west": 5423,
    " waist": 5424,
    " twigs": 5425,
    " perfectly": 5426,
    " known": 5427,
    " fetch": 5428,
    " Follow": 5429,
    "umes": 5430,
    "anny": 5431,
    "Ha": 5432,
    " wiggle": 5433,
    " motion": 5434,
    " contest": 5435,
    " appro": 5436,
    " trave": 5437,
    " lips": 5438,
    " Slow": 5439,
    " playtime": 5440,
    " investigate": 5441,
    " esc": 5442,
    " colours": 5443,
    "Ok": 5444,
    " resting": 5445,
    " kneeled": 5446,
    " Sandy": 5447,
    " Both": 5448,
    " Bo": 5449,
    "ther": 5450,
    "ored": 5451,
    "abies": 5452,
    "aved": 5453,
    " spit": 5454,
    " nails": 5455,
    " flat": 5456,
    " costumes": 5457,
    " chewing": 5458,
    " studied": 5459,
    " officer": 5460,
    " highest": 5461,
    " begged": 5462,
    " Later": 5463,
    "rr": 5464,
    "aker": 5465,
    " scratched": 5466,
    " lick": 5467,
    " importance": 5468,
    " east": 5469,
    " babies": 5470,
    "osed": 5471,
    "ission": 5472,
    " works": 5473,
    " quack": 5474,
    " mister": 5475,
    " inch": 5476,
    "utter": 5477,
    " slapped": 5478,
    " permission": 5479,
    " girls": 5480,
    " Someone": 5481,
    " Happy": 5482,
    " setting": 5483,
    " lets": 5484,
    " lines": 5485,
    " guy": 5486,
    "Would": 5487,
    " six": 5488,
    " emer": 5489,
    " Frog": 5490,
    "zing": 5491,
    "Meow": 5492,
    " stro": 5493,
    " ripped": 5494,
    " immediately": 5495,
    " ago": 5496,
    " Suzy": 5497,
    "Tr": 5498,
    " tucked": 5499,
    " peaches": 5500,
    " headed": 5501,
    " crunch": 5502,
    " Kate": 5503,
    "xture": 5504,
    "oved": 5505,
    "ls": 5506,
    "kelly": 5507,
    "bug": 5508,
    " texture": 5509,
    " keys": 5510,
    " Stitch": 5511,
    "ids": 5512,
    " shed": 5513,
    " rul": 5514,
    " marks": 5515,
    " item": 5516,
    "nie": 5517,
    "izing": 5518,
    "irts": 5519,
    "hello": 5520,
    " trips": 5521,
    " safety": 5522,
    " napping": 5523,
    " Liz": 5524,
    " David": 5525,
    "ogo": 5526,
    " youth": 5527,
    " silence": 5528,
    " settled": 5529,
    " beamed": 5530,
    "Happy": 5531,
    " thrill": 5532,
    " strang": 5533,
    " praised": 5534,
    " hesit": 5535,
    " Hop": 5536,
    " Dr": 5537,
    " An": 5538,
    "sing": 5539,
    "please": 5540,
    " sneak": 5541,
    " shadows": 5542,
    " revealed": 5543,
    " presents": 5544,
    " moments": 5545,
    " burning": 5546,
    " bringing": 5547,
    " Bug": 5548,
    "osity": 5549,
    " secrets": 5550,
    " brushes": 5551,
    " amazement": 5552,
    " Uncle": 5553,
    " Am": 5554,
    "walk": 5555,
    "eep": 5556,
    " grant": 5557,
    " crawling": 5558,
    " brid": 5559,
    "antly": 5560,
    " threat": 5561,
    " supposed": 5562,
    " stripes": 5563,
    " stealing": 5564,
    " result": 5565,
    " knelt": 5566,
    " admir": 5567,
    "ira": 5568,
    "Leo": 5569,
    " waits": 5570,
    " wiz": 5571,
    " piles": 5572,
    " ordered": 5573,
    " leader": 5574,
    " hated": 5575,
    "Mmm": 5576,
    " theirs": 5577,
    " strings": 5578,
    " sidewalk": 5579,
    " dire": 5580,
    " bridges": 5581,
    " area": 5582,
    " Henry": 5583,
    "mbling": 5584,
    " trembling": 5585,
    " curled": 5586,
    " achie": 5587,
    "plash": 5588,
    "enty": 5589,
    " wonders": 5590,
    " tickets": 5591,
    " strangers": 5592,
    " Skelly": 5593,
    " wink": 5594,
    " si": 5595,
    " Not": 5596,
    "embers": 5597,
    " tastes": 5598,
    " sparkling": 5599,
    " sore": 5600,
    " served": 5601,
    " roots": 5602,
    " remembers": 5603,
    " pots": 5604,
    " monsters": 5605,
    " lands": 5606,
    " escaped": 5607,
    " behaved": 5608,
    " Milly": 5609,
    "ino": 5610,
    "ides": 5611,
    "allen": 5612,
    " turning": 5613,
    " poking": 5614,
    " obe": 5615,
    " keeps": 5616,
    " doggy": 5617,
    " Clara": 5618,
    "Tw": 5619,
    "Somet": 5620,
    " sings": 5621,
    " pedals": 5622,
    " pearl": 5623,
    " challen": 5624,
    " Pippa": 5625,
    "loe": 5626,
    " ladybug": 5627,
    " Ste": 5628,
    " Rocky": 5629,
    "hind": 5630,
    "Boo": 5631,
    "!\",": 5632,
    " wizard": 5633,
    " sneaky": 5634,
    " shooting": 5635,
    " pride": 5636,
    " bloomed": 5637,
    " answers": 5638,
    " Rabbit": 5639,
    "act": 5640,
    " wooden": 5641,
    " whatever": 5642,
    " herbs": 5643,
    " collecting": 5644,
    " Out": 5645,
    "Ella": 5646,
    "\",": 5647,
    " radishes": 5648,
    " prec": 5649,
    " opin": 5650,
    " foods": 5651,
    " dinosaurs": 5652,
    " dads": 5653,
    " cuddled": 5654,
    " Wigg": 5655,
    " First": 5656,
    "irring": 5657,
    "achel": 5658,
    "Un": 5659,
    "Sammy": 5660,
    " shopping": 5661,
    " chef": 5662,
    " Something": 5663,
    " Green": 5664,
    "usty": 5665,
    "omas": 5666,
    " ruler": 5667,
    " pebbles": 5668,
    " mittens": 5669,
    " families": 5670,
    " eight": 5671,
    " comple": 5672,
    " pupp": 5673,
    " polished": 5674,
    " obey": 5675,
    " grey": 5676,
    " gust": 5677,
    " crunchy": 5678,
    " chirped": 5679,
    " Sky": 5680,
    " thrilled": 5681,
    " melting": 5682,
    " honk": 5683,
    " flav": 5684,
    " draws": 5685,
    " James": 5686,
    " Always": 5687,
    "uture": 5688,
    "ues": 5689,
    "ales": 5690,
    " twin": 5691,
    " spaceship": 5692,
    " heroes": 5693,
    " future": 5694,
    " decorated": 5695,
    " bleeding": 5696,
    " Mo": 5697,
    " Jul": 5698,
    " Gogo": 5699,
    " Ava": 5700,
    "uzz": 5701,
    "Bird": 5702,
    "Andy": 5703,
    " warmth": 5704,
    " steep": 5705,
    " spiders": 5706,
    " sisters": 5707,
    " siren": 5708,
    " rides": 5709,
    " disturbed": 5710,
    "oh": 5711,
    " zooming": 5712,
    " writes": 5713,
    " emergen": 5714,
    " decision": 5715,
    " Beep": 5716,
    "unnies": 5717,
    "aws": 5718,
    " stirring": 5719,
    " sparkle": 5720,
    " soared": 5721,
    " snowballs": 5722,
    " happiest": 5723,
    " approached": 5724,
    "rs": 5725,
    "iggy": 5726,
    "ided": 5727,
    " wanting": 5728,
    " playroom": 5729,
    " machines": 5730,
    " cones": 5731,
    "Ollie": 5732,
    "Eventually": 5733,
    "Cl": 5734,
    " weighed": 5735,
    " vet": 5736,
    " soaked": 5737,
    " precious": 5738,
    " peel": 5739,
    " owned": 5740,
    " frost": 5741,
    " appreciate": 5742,
    " Like": 5743,
    "oot": 5744,
    "Yummy": 5745,
    " touching": 5746,
    " succeeded": 5747,
    " sprinkles": 5748,
    " slim": 5749,
    " eats": 5750,
    " bravely": 5751,
    " beat": 5752,
    " bunnies": 5753,
    " anytime": 5754,
    " Che": 5755,
    "ena": 5756,
    "First": 5757,
    " struggled": 5758,
    " loving": 5759,
    " kindly": 5760,
    "fied": 5761,
    "Have": 5762,
    " struck": 5763,
    " roads": 5764,
    " recognized": 5765,
    " prepared": 5766,
    " decides": 5767,
    " awe": 5768,
    " Mat": 5769,
    " Maggie": 5770,
    " Did": 5771,
    " Once": 5772,
    ".'": 5773,
    " zookeeper": 5774,
    " toss": 5775,
    " staying": 5776,
    " neighborhood": 5777,
    " claps": 5778,
    " buzzing": 5779,
    " broom": 5780,
    "ays": 5781,
    "Remember": 5782,
    " tricked": 5783,
    " tickle": 5784,
    " slimy": 5785,
    " scooped": 5786,
    " nicer": 5787,
    " comforted": 5788,
    " Slowly": 5789,
    "urry": 5790,
    "joyed": 5791,
    " stare": 5792,
    " hi": 5793,
    " beside": 5794,
    " Star": 5795,
    "indy": 5796,
    " rocked": 5797,
    " overjoyed": 5798,
    " gained": 5799,
    " crashed": 5800,
    " continue": 5801,
    " boom": 5802,
    "ud": 5803,
    "riends": 5804,
    "isdom": 5805,
    " shirts": 5806,
    " noon": 5807,
    " Spring": 5808,
    "Rex": 5809,
    "Peter": 5810,
    "Emily": 5811,
    " rubbing": 5812,
    " rele": 5813,
    " glowed": 5814,
    " agreement": 5815,
    " Zigzag": 5816,
    " Stop": 5817,
    " Pepper": 5818,
    " Me": 5819,
    "isten": 5820,
    "Sometimes": 5821,
    "'.": 5822,
    " spending": 5823,
    " ribbons": 5824,
    " expected": 5825,
    " dot": 5826,
    " balancing": 5827,
    " X": 5828,
    "ana": 5829,
    "Ro": 5830,
    " discovery": 5831,
    " crabs": 5832,
    " Squ": 5833,
    "lier": 5834,
    " surrounded": 5835,
    " spraying": 5836,
    " rings": 5837,
    " frosting": 5838,
    " emergency": 5839,
    " belly": 5840,
    "Ah": 5841,
    " yelling": 5842,
    " seesaw": 5843,
    " sides": 5844,
    " loose": 5845,
    " lily": 5846,
    " keeper": 5847,
    " hen": 5848,
    " Aunt": 5849,
    " completed": 5850,
    " admiring": 5851,
    "Sp": 5852,
    "Jake": 5853,
    " worker": 5854,
    " sighs": 5855,
    " rocking": 5856,
    " respons": 5857,
    " refres": 5858,
    " grinned": 5859,
    " bottles": 5860,
    " argued": 5861,
    " acting": 5862,
    " Bouncy": 5863,
    "oys": 5864,
    " protected": 5865,
    " penguins": 5866,
    " ourselves": 5867,
    " earlier": 5868,
    " eff": 5869,
    " dragons": 5870,
    " buildings": 5871,
    " Frank": 5872,
    " Bree": 5873,
    "zen": 5874,
    "use": 5875,
    " sneaked": 5876,
    " hissed": 5877,
    " comfy": 5878,
    " clearing": 5879,
    " boo": 5880,
    " Dare": 5881,
    "amie": 5882,
    " yesterday": 5883,
    " twink": 5884,
    " polishing": 5885,
    " folding": 5886,
    " cuts": 5887,
    " curiosity": 5888,
    " contain": 5889,
    "Whiskers": 5890,
    " teased": 5891,
    " swims": 5892,
    " scaring": 5893,
    " pockets": 5894,
    " planets": 5895,
    " loaded": 5896,
    " goodnight": 5897,
    " Je": 5898,
    "undred": 5899,
    "umble": 5900,
    "Or": 5901,
    " sting": 5902,
    " prop": 5903,
    " possible": 5904,
    " parties": 5905,
    " naps": 5906,
    " learns": 5907,
    " apologized": 5908,
    " apologize": 5909,
    " Dino": 5910,
    " soaring": 5911,
    " released": 5912,
    " recorded": 5913,
    " pause": 5914,
    " opinion": 5915,
    " hundred": 5916,
    " frozen": 5917,
    " company": 5918,
    " brushed": 5919,
    " sparkles": 5920,
    " pastels": 5921,
    " neighbors": 5922,
    " minerals": 5923,
    " horns": 5924,
    " Whist": 5925,
    " Birdie": 5926,
    "allow": 5927,
    " studying": 5928,
    " splashes": 5929,
    " safer": 5930,
    " padd": 5931,
    " actions": 5932,
    " Cra": 5933,
    "ppers": 5934,
    "igail": 5935,
    "ien": 5936,
    " organizing": 5937,
    " opening": 5938,
    " movies": 5939,
    " hardly": 5940,
    " demanded": 5941,
    " bedtime": 5942,
    " Wiggly": 5943,
    " Wisdom": 5944,
    " Rachel": 5945,
    "ities": 5946,
    "affes": 5947,
    " uses": 5948,
    " tim": 5949,
    " sausages": 5950,
    " phot": 5951,
    " giraffes": 5952,
    " eagle": 5953,
    " downstairs": 5954,
    " applauded": 5955,
    " Leave": 5956,
    "oming": 5957,
    "mother": 5958,
    " wound": 5959,
    " wid": 5960,
    " tasks": 5961,
    " tugged": 5962,
    " smallest": 5963,
    " purred": 5964,
    " effort": 5965,
    " circus": 5966,
    " Splash": 5967,
    " Being": 5968,
    "guing": 5969,
    "atie": 5970,
    "Susie": 5971,
    "During": 5972,
    " stretching": 5973,
    " seems": 5974,
    " repeated": 5975,
    " glitter": 5976,
    " Gr": 5977,
    " wherever": 5978,
    " hugging": 5979,
    " flutter": 5980,
    " chases": 5981,
    " bowls": 5982,
    " beard": 5983,
    " arguing": 5984,
    " Water": 5985,
    " Ray": 5986,
    "hee": 5987,
    "edding": 5988,
    " sunlight": 5989,
    " scru": 5990,
    " pouring": 5991,
    " limes": 5992,
    " gaze": 5993,
    " forks": 5994,
    " catches": 5995,
    " cans": 5996,
    " bead": 5997,
    " Robby": 5998,
    " Abby": 5999,
    "Poppy": 6000,
    "...": 6001,
    " matching": 6002,
    " cuddle": 6003,
    " actually": 6004,
    " reply": 6005,
    " prettiest": 6006,
    " prettier": 6007,
    " diving": 6008,
    " dipped": 6009,
    " airpl": 6010,
    " Put": 6011,
    " wiggled": 6012,
    " tallest": 6013,
    " snakes": 6014,
    " roaring": 6015,
    " removed": 6016,
    " gotten": 6017,
    " Watch": 6018,
    " Behind": 6019,
    " Ally": 6020,
    "ica": 6021,
    " struggling": 6022,
    " steady": 6023,
    " situ": 6024,
    " realize": 6025,
    " poems": 6026,
    " pastries": 6027,
    " flags": 6028,
    " fasc": 6029,
    " drives": 6030,
    " dolphins": 6031,
    " cough": 6032,
    " bare": 6033,
    "Watch": 6034,
    " wondering": 6035,
    " united": 6036,
    " third": 6037,
    " teaches": 6038,
    " powers": 6039,
    " peas": 6040,
    " patience": 6041,
    " lied": 6042,
    " gathering": 6043,
    " dragged": 6044,
    " Lou": 6045,
    " Brownie": 6046,
    "ora": 6047,
    "Ex": 6048,
    " weeks": 6049,
    " shrug": 6050,
    " shivered": 6051,
    " photos": 6052,
    " Josh": 6053,
    "Uh": 6054,
    "Grace": 6055,
    " visiting": 6056,
    " mountains": 6057,
    " ma": 6058,
    " gems": 6059,
    " cracked": 6060,
    " caut": 6061,
    " agrees": 6062,
    " Ju": 6063,
    " wedding": 6064,
    " talent": 6065,
    " smiley": 6066,
    " peppers": 6067,
    " peered": 6068,
    " items": 6069,
    " introduc": 6070,
    " instruct": 6071,
    " Steve": 6072,
    " Love": 6073,
    "wh": 6074,
    "Fr": 6075,
    "Ducky": 6076,
    " traveled": 6077,
    " sweeties": 6078,
    " sticking": 6079,
    " rip": 6080,
    " reaching": 6081,
    " paintings": 6082,
    " lap": 6083,
    " fairies": 6084,
    " deser": 6085,
    " Pup": 6086,
    " Jan": 6087,
    " Hoot": 6088,
    " Blink": 6089,
    "ha": 6090,
    "araway": 6091,
    " petted": 6092,
    " hops": 6093,
    " faraway": 6094,
    " curly": 6095,
    " challenge": 6096,
    " Because": 6097,
    "zes": 6098,
    "jam": 6099,
    "Rob": 6100,
    " rainbows": 6101,
    " quarreling": 6102,
    " darker": 6103,
    " curtains": 6104,
    " bunch": 6105,
    " awake": 6106,
    " Thomas": 6107,
    " Skip": 6108,
    " Paws": 6109,
    " Beth": 6110,
    "uckily": 6111,
    "ashed": 6112,
    "True": 6113,
    "Fo": 6114,
    " wins": 6115,
    " vehicles": 6116,
    " requested": 6117,
    " pointy": 6118,
    " panc": 6119,
    " packing": 6120,
    " gran": 6121,
    " forgi": 6122,
    " fascin": 6123,
    " dusty": 6124,
    " crumb": 6125,
    " arrive": 6126,
    " ann": 6127,
    " Rover": 6128,
    " Jess": 6129,
    "â.": 6130,
    "coon": 6131,
    " sled": 6132,
    " rolls": 6133,
    " responsible": 6134,
    " protecting": 6135,
    " homework": 6136,
    " helmets": 6137,
    " guys": 6138,
    "lowers": 6139,
    "ern": 6140,
    "Benny": 6141,
    " whose": 6142,
    " helpers": 6143,
    " begin": 6144,
    " bank": 6145,
    " Chloe": 6146,
    "ler": 6147,
    "George": 6148,
    " prayer": 6149,
    " Squirrel": 6150,
    " Remember": 6151,
    "uke": 6152,
    "ivity": 6153,
    "anging": 6154,
    "Silly": 6155,
    " tails": 6156,
    " refuse": 6157,
    " goals": 6158,
    " blows": 6159,
    " Zoe": 6160,
    " Prin": 6161,
    " Car": 6162,
    "uzzy": 6163,
    "ords": 6164,
    "ooped": 6165,
    "annah": 6166,
    "Miss": 6167,
    "Grandpa": 6168,
    " usual": 6169,
    " sweat": 6170,
    " rule": 6171,
    " onions": 6172,
    " misses": 6173,
    " knights": 6174,
    " instructions": 6175,
    " granted": 6176,
    " fears": 6177,
    " accom": 6178,
    "usan": 6179,
    "nies": 6180,
    "dam": 6181,
    "Toby": 6182,
    "Tiny": 6183,
    "Mar": 6184,
    "Hold": 6185,
    " woof": 6186,
    " scrubbed": 6187,
    " perched": 6188,
    " outdo": 6189,
    " examined": 6190,
    " dam": 6191,
    " copy": 6192,
    " Fish": 6193,
    "Fine": 6194,
    "Doggy": 6195,
    "Achoo": 6196,
    " twirl": 6197,
    " staring": 6198,
    " practicing": 6199,
    " grandmother": 6200,
    " glasses": 6201,
    " Twinkle": 6202,
    "ining": 6203,
    "Stay": 6204,
    " teamwork": 6205,
    " screaming": 6206,
    " pans": 6207,
    " exact": 6208,
    " chips": 6209,
    " beads": 6210,
    " bars": 6211,
    " accompl": 6212,
    "ky": 6213,
    "esome": 6214,
    "die": 6215,
    "aster": 6216,
    " seas": 6217,
    " replaced": 6218,
    " pennies": 6219,
    " parked": 6220,
    " ornaments": 6221,
    " mane": 6222,
    " guns": 6223,
    " firefight": 6224,
    " fault": 6225,
    " died": 6226,
    " cause": 6227,
    " barely": 6228,
    " Mix": 6229,
    " Jilly": 6230,
    " However": 6231,
    " Everyday": 6232,
    " By": 6233,
    "seek": 6234,
    "bbie": 6235,
    "Paul": 6236,
    "An": 6237,
    " snowmen": 6238,
    " sneezing": 6239,
    " slam": 6240,
    " satis": 6241,
    " sadness": 6242,
    " pumpkins": 6243,
    " outdoors": 6244,
    " onwards": 6245,
    " awesome": 6246,
    " Quack": 6247,
    " Friends": 6248,
    " Bye": 6249,
    "sses": 6250,
    "Thanks": 6251,
    "Tina": 6252,
    "Pete": 6253,
    " wasted": 6254,
    " patted": 6255,
    " entire": 6256,
    " complained": 6257,
    " Zero": 6258,
    " Keep": 6259,
    " Cudd": 6260,
    "ilo": 6261,
    "Dog": 6262,
    " wobbled": 6263,
    " roses": 6264,
    " reminder": 6265,
    " reluct": 6266,
    " pretends": 6267,
    " policeman": 6268,
    " insist": 6269,
    " destination": 6270,
    " Moon": 6271,
    " Gina": 6272,
    " Bark": 6273,
    "agull": 6274,
    "Some": 6275,
    "Luna": 6276,
    "Bad": 6277,
    " weren": 6278,
    " project": 6279,
    " everyday": 6280,
    " complaining": 6281,
    " Buggy": 6282,
    "oke": 6283,
    "gers": 6284,
    "Que": 6285,
    " wrist": 6286,
    " wandering": 6287,
    " masks": 6288,
    " logs": 6289,
    " creation": 6290,
    " airplane": 6291,
    " Sure": 6292,
    " Our": 6293,
    "uly": 6294,
    "anes": 6295,
    "Dave": 6296,
    " kicks": 6297,
    " contro": 6298,
    " chirping": 6299,
    " balanced": 6300,
    " Ziggy": 6301,
    "neath": 6302,
    "Queen": 6303,
    " vent": 6304,
    " truly": 6305,
    " shelves": 6306,
    " pencils": 6307,
    " drums": 6308,
    " delivered": 6309,
    " buckets": 6310,
    " Catty": 6311,
    " 1": 6312,
    "you": 6313,
    "Johnny": 6314,
    "Bunny": 6315,
    " usually": 6316,
    " plenty": 6317,
    " mission": 6318,
    " loading": 6319,
    " librarian": 6320,
    " dar": 6321,
    " da": 6322,
    " confl": 6323,
    " cautious": 6324,
    " candies": 6325,
    " cent": 6326,
    " Woof": 6327,
    " Quick": 6328,
    "umm": 6329,
    "son": 6330,
    "irm": 6331,
    " videos": 6332,
    " tables": 6333,
    " pout": 6334,
    " listens": 6335,
    " joked": 6336,
    " introduced": 6337,
    " froze": 6338,
    " Sw": 6339,
    "jamas": 6340,
    "arter": 6341,
    "Harry": 6342,
    "Chirpy": 6343,
    " villag": 6344,
    " traded": 6345,
    " timer": 6346,
    " smarter": 6347,
    " situation": 6348,
    " refle": 6349,
    " neighbourhood": 6350,
    " included": 6351,
    " conflict": 6352,
    " brand": 6353,
    " adding": 6354,
    " Want": 6355,
    " Two": 6356,
    " Abigail": 6357,
    "njoy": 6358,
    "lay": 6359,
    " villagers": 6360,
    " towels": 6361,
    " swooped": 6362,
    " speaking": 6363,
    " rubs": 6364,
    " reluctantly": 6365,
    " promises": 6366,
    " observed": 6367,
    " mes": 6368,
    " cheering": 6369,
    " achieve": 6370,
    " Lena": 6371,
    " Kay": 6372,
    " Cuddles": 6373,
    "lings": 6374,
    "Time": 6375,
    "James": 6376,
    " winked": 6377,
    " stern": 6378,
    " squares": 6379,
    " seagull": 6380,
    " ruining": 6381,
    " rescued": 6382,
    " quacked": 6383,
    " pajamas": 6384,
    " desert": 6385,
    " crept": 6386,
    " cobwebs": 6387,
    " beneath": 6388,
    "ilda": 6389,
    "fl": 6390,
    "Unfortunately": 6391,
    "Ew": 6392,
    " yourselves": 6393,
    " thorn": 6394,
    " supplies": 6395,
    " startled": 6396,
    " solut": 6397,
    " shoulders": 6398,
    " recording": 6399,
    " reads": 6400,
    " passing": 6401,
    " lollipops": 6402,
    " knocks": 6403,
    " filling": 6404,
    " Jamie": 6405,
    "dies": 6406,
    "Ru": 6407,
    "Annie": 6408,
    " wires": 6409,
    " stumble": 6410,
    " sights": 6411,
    " scales": 6412,
    " rockets": 6413,
    " neither": 6414,
    " exactly": 6415,
    " chuck": 6416,
    " changing": 6417,
    " burst": 6418,
    " Snap": 6419,
    " For": 6420,
    "  ": 6421,
    "uest": 6422,
    "ley": 6423,
    "indr": 6424,
    "ido": 6425,
    "aura": 6426,
    " written": 6427,
    " surface": 6428,
    " stays": 6429,
    " inviting": 6430,
    " guest": 6431,
    " fascinated": 6432,
    " confident": 6433,
    " closes": 6434,
    " becoming": 6435,
    " basement": 6436,
    " Whistle": 6437,
    " Pam": 6438,
    "arth": 6439,
    "Our": 6440,
    "Charlie": 6441,
    "Ab": 6442,
    "...\"": 6443,
    " wishing": 6444,
    " underneath": 6445,
    " tune": 6446,
    " scarves": 6447,
    " desp": 6448,
    " buses": 6449,
    " Sorry": 6450,
    " Joy": 6451,
    " Jones": 6452,
    " icing": 6453,
    "izzie": 6454,
    "eed": 6455,
    "eah": 6456,
    "Oops": 6457,
    "Days": 6458,
    " stole": 6459,
    " relief": 6460,
    " raindr": 6461,
    " patiently": 6462,
    " owners": 6463,
    " muscle": 6464,
    " however": 6465,
    " heav": 6466,
    " hitting": 6467,
    " growls": 6468,
    " growling": 6469,
    " giggling": 6470,
    " farther": 6471,
    " explorers": 6472,
    " Welcome": 6473,
    " Nina": 6474,
    "avi": 6475,
    "adly": 6476,
    " noses": 6477,
    " kites": 6478,
    " guessing": 6479,
    " direction": 6480,
    " dances": 6481,
    " dent": 6482,
    " behaving": 6483,
    " Wink": 6484,
    " Min": 6485,
    " yells": 6486,
    " ties": 6487,
    " squeal": 6488,
    " refreshed": 6489,
    " praying": 6490,
    " pigeons": 6491,
    " pens": 6492,
    " firm": 6493,
    " control": 6494,
    " Woo": 6495,
    " Tree": 6496,
    " Chew": 6497,
    "onny": 6498,
    "ners": 6499,
    "angled": 6500,
    "ammy": 6501,
    "ados": 6502,
    "Rose": 6503,
    "Milly": 6504,
    " twinkling": 6505,
    " seven": 6506,
    " remote": 6507,
    " performed": 6508,
    " paddled": 6509,
    " joking": 6510,
    " click": 6511,
    " chat": 6512,
    " ast": 6513,
    " Mad": 6514,
    "ody": 6515,
    "iggie": 6516,
    "fit": 6517,
    "bird": 6518,
    " workers": 6519,
    " wears": 6520,
    " vowed": 6521,
    " unf": 6522,
    " remembering": 6523,
    " pec": 6524,
    " outfit": 6525,
    " knees": 6526,
    " crumbs": 6527,
    " chefs": 6528,
    " caused": 6529,
    " avocados": 6530,
    " Susan": 6531,
    " Kids": 6532,
    " Get": 6533,
    " Dizzy": 6534,
    "sm": 6535,
    "oline": 6536,
    "go": 6537,
    "etsy": 6538,
    "amb": 6539,
    "Roar": 6540,
    " ventured": 6541,
    " piggy": 6542,
    " paddle": 6543,
    " nine": 6544,
    " healed": 6545,
    " crowd": 6546,
    " colored": 6547,
    " avo": 6548,
    " Olly": 6549,
    " Mira": 6550,
    " Jeff": 6551,
    " Bop": 6552,
    "usted": 6553,
    "laire": 6554,
    "chy": 6555,
    "Sn": 6556,
    "Polly": 6557,
    "Mike": 6558,
    " wobb": 6559,
    " raccoon": 6560,
    " provided": 6561,
    " cubes": 6562,
    " bravery": 6563,
    " badge": 6564,
    " baker": 6565,
    " Jenna": 6566,
    " Earth": 6567,
    " Ant": 6568,
    " Yes": 6569,
    "ho": 6570,
    "acob": 6571,
    " snowfl": 6572,
    " scratches": 6573,
    " salty": 6574,
    " necklaces": 6575,
    " clowns": 6576,
    " bumps": 6577,
    " Unfortunately": 6578,
    " Try": 6579,
    " Foxy": 6580,
    "tuce": 6581,
    "tle": 6582,
    "Shh": 6583,
    "Maggie": 6584,
    "Dan": 6585,
    "Buzz": 6586,
    " vines": 6587,
    " twice": 6588,
    " tickled": 6589,
    " sobbed": 6590,
    " properly": 6591,
    " lighter": 6592,
    " lettuce": 6593,
    " entr": 6594,
    " dived": 6595,
    " creating": 6596,
    " choices": 6597,
    " celebrating": 6598,
    " Hippy": 6599,
    " Queen": 6600,
    "Run": 6601,
    "Joey": 6602,
    " wraps": 6603,
    " uns": 6604,
    " twirling": 6605,
    " slower": 6606,
    " risk": 6607,
    " least": 6608,
    " faced": 6609,
    " darling": 6610,
    " biting": 6611,
    " Those": 6612,
    " Moo": 6613,
    " Dodo": 6614,
    " Crab": 6615,
    "itched": 6616,
    "anta": 6617,
    "Out": 6618,
    "Great": 6619,
    "For": 6620,
    " valued": 6621,
    " spong": 6622,
    " solution": 6623,
    " rotting": 6624,
    " feeding": 6625,
    " freed": 6626,
    " cheeks": 6627,
    " batteries": 6628,
    " backward": 6629,
    " Sof": 6630,
    " Rolly": 6631,
    " Princess": 6632,
    " Mouse": 6633,
    "lets": 6634,
    "itely": 6635,
    "Yeah": 6636,
    "Lola": 6637,
    "Lilly": 6638,
    " wow": 6639,
    " tapped": 6640,
    " superheroes": 6641,
    " slammed": 6642,
    " restored": 6643,
    " reflection": 6644,
    " playhouse": 6645,
    " itchy": 6646,
    " interested": 6647,
    " improved": 6648,
    " groups": 6649,
    " fuzzy": 6650,
    " doctors": 6651,
    " camping": 6652,
    " bumpy": 6653,
    " Katie": 6654,
    "though": 6655,
    "roat": 6656,
    "ophia": 6657,
    "iti": 6658,
    "icorn": 6659,
    "ences": 6660,
    "Henry": 6661,
    "Follow": 6662,
    " unicorn": 6663,
    " throat": 6664,
    " seeker": 6665,
    " satisfied": 6666,
    " sib": 6667,
    " kings": 6668,
    " instrum": 6669,
    " greet": 6670,
    " grabbing": 6671,
    " gri": 6672,
    " forehead": 6673,
    " exha": 6674,
    " comm": 6675,
    " chuckled": 6676,
    " crew": 6677,
    " cash": 6678,
    " bows": 6679,
    " alien": 6680,
    " Rich": 6681,
    " Julie": 6682,
    "isies": 6683,
    "cuse": 6684,
    "boat": 6685,
    "Beep": 6686,
    "Big": 6687,
    " toaster": 6688,
    " stool": 6689,
    " signed": 6690,
    " raindrops": 6691,
    " puppies": 6692,
    " figured": 6693,
    " dollhouse": 6694,
    " covers": 6695,
    " buzzed": 6696,
    " accomplish": 6697,
    " Lion": 6698,
    " Fido": 6699,
    " Cindy": 6700,
    " Biggie": 6701,
    " Ball": 6702,
    "ults": 6703,
    "retch": 6704,
    "bbled": 6705,
    "?\",": 6706,
    " â": 6707,
    " worries": 6708,
    " twinkle": 6709,
    " ty": 6710,
    " slowed": 6711,
    " pecked": 6712,
    " lifting": 6713,
    " honked": 6714,
    " entrance": 6715,
    " dots": 6716,
    " decorating": 6717,
    " cuddly": 6718,
    " completely": 6719,
    " competition": 6720,
    " blooming": 6721,
    " arrows": 6722,
    " Tara": 6723,
    " Mel": 6724,
    " Ma": 6725,
    " Chr": 6726,
    "vers": 6727,
    "sequ": 6728,
    "rious": 6729,
    "ledge": 6730,
    "ingo": 6731,
    "Those": 6732,
    "Pipp": 6733,
    "Co": 6734,
    " younger": 6735,
    " tipto": 6736,
    " symbols": 6737,
    " swords": 6738,
    " scra": 6739,
    " sway": 6740,
    " ropes": 6741,
    " races": 6742,
    " pancakes": 6743,
    " pins": 6744,
    " napkins": 6745,
    " leaning": 6746,
    " leading": 6747,
    " knowledge": 6748,
    " jobs": 6749,
    " exhausted": 6750,
    " daisies": 6751,
    " buying": 6752,
    " Enjoy": 6753,
    " Betsy": 6754,
    " \n ": 6755,
    "ne": 6756,
    "bie": 6757,
    "armer": 6758,
    "Excuse": 6759,
    " wipes": 6760,
    " tires": 6761,
    " thud": 6762,
    " sunflowers": 6763,
    " sniffs": 6764,
    " scur": 6765,
    " planning": 6766,
    " losing": 6767,
    " hides": 6768,
    " hider": 6769,
    " consequ": 6770,
    " choo": 6771,
    " cautiously": 6772,
    " Snowman": 6773,
    "stick": 6774,
    "abel": 6775,
    "aa": 6776,
    "Zoom": 6777,
    "May": 6778,
    " unp": 6779,
    " triangles": 6780,
    " tangled": 6781,
    " sponge": 6782,
    " spat": 6783,
    " siblings": 6784,
    " shops": 6785,
    " sailors": 6786,
    " mushrooms": 6787,
    " lamb": 6788,
    " darkness": 6789,
    " creations": 6790,
    " consequences": 6791,
    " bracelets": 6792,
    " Turtle": 6793,
    " Milo": 6794,
    "ossible": 6795,
    "inda": 6796,
    "elia": 6797,
    "airy": 6798,
    "Pe": 6799,
    " tricky": 6800,
    " stomped": 6801,
    " somebody": 6802,
    " skunk": 6803,
    " scurried": 6804,
    " partic": 6805,
    " lungs": 6806,
    " increased": 6807,
    " hesitated": 6808,
    " gle": 6809,
    " cashier": 6810,
    " age": 6811,
    " Goodbye": 6812,
    " El": 6813,
    "prin": 6814,
    "ibbit": 6815,
    "eese": 6816,
    "ctions": 6817,
    "coat": 6818,
    "Teddy": 6819,
    "Jerry": 6820,
    "Danny": 6821,
    " warnings": 6822,
    " squealed": 6823,
    " sewed": 6824,
    " sense": 6825,
    " rainy": 6826,
    " fins": 6827,
    " deserve": 6828,
    " deal": 6829,
    " Wo": 6830,
    " Stay": 6831,
    " Matt": 6832,
    "zie": 6833,
    "step": 6834,
    "itcase": 6835,
    "Whee": 6836,
    "Sandy": 6837,
    "?'": 6838,
    " untied": 6839,
    " untie": 6840,
    " sweets": 6841,
    " swans": 6842,
    " suitcase": 6843,
    " spreading": 6844,
    " sewing": 6845,
    " puppet": 6846,
    " paying": 6847,
    " impossible": 6848,
    " geese": 6849,
    " flames": 6850,
    " earn": 6851,
    " curiously": 6852,
    " budge": 6853,
    " behavi": 6854,
    " baths": 6855,
    " Rollie": 6856,
    " Po": 6857,
    " Laura": 6858,
    " Duck": 6859,
    "ustom": 6860,
    " zipping": 6861,
    " shaped": 6862,
    " separated": 6863,
    " raincoat": 6864,
    " rising": 6865,
    " particular": 6866,
    " opp": 6867,
    " mints": 6868,
    " leap": 6869,
    " insects": 6870,
    " glued": 6871,
    " flavor": 6872,
    " discovering": 6873,
    " determination": 6874,
    " creativity": 6875,
    " clues": 6876,
    " activ": 6877,
    " Sc": 6878,
    " Santa": 6879,
    " Rudy": 6880,
    " Pin": 6881,
    " Jessie": 6882,
    " Dee": 6883,
    " Ash": 6884,
    " Adam": 6885,
    "ude": 6886,
    "len": 6887,
    "ives": 6888,
    " windy": 6889,
    " tunnels": 6890,
    " starfish": 6891,
    " silent": 6892,
    " maker": 6893,
    " images": 6894,
    " cous": 6895,
    " beam": 6896,
    " Sun": 6897,
    " Other": 6898,
    " Larry": 6899,
    " Els": 6900,
    "vin": 6901,
    "umbled": 6902,
    "ps": 6903,
    "iar": 6904,
    "erate": 6905,
    "cher": 6906,
    "Listen": 6907,
    "Get": 6908,
    " tying": 6909,
    " recommended": 6910,
    " reason": 6911,
    " princesses": 6912,
    " printing": 6913,
    " month": 6914,
    " lifts": 6915,
    " forgets": 6916,
    " designed": 6917,
    " custom": 6918,
    " adult": 6919,
    " ache": 6920,
    " Yesterday": 6921,
    " Jessica": 6922,
    " Jump": 6923,
    " Hug": 6924,
    "rrr": 6925,
    "lled": 6926,
    "hi": 6927,
    "ering": 6928,
    "aterial": 6929,
    "Tweet": 6930,
    "Sophie": 6931,
    "However": 6932,
    " thrown": 6933,
    " screws": 6934,
    " sailboat": 6935,
    " paths": 6936,
    " needles": 6937,
    " material": 6938,
    " knots": 6939,
    " fever": 6940,
    " fact": 6941,
    " calmed": 6942,
    " blocking": 6943,
    " bak": 6944,
    " Nick": 6945,
    " Farmer": 6946,
    " Birthday": 6947,
    "uggles": 6948,
    "oodles": 6949,
    "iversity": 6950,
    "ept": 6951,
    "Sunny": 6952,
    " waiter": 6953,
    " talks": 6954,
    " stung": 6955,
    " players": 6956,
    " plans": 6957,
    " lower": 6958,
    " dod": 6959,
    " directions": 6960,
    " damage": 6961,
    " celebration": 6962,
    " blinking": 6963,
    " beginning": 6964,
    " backwards": 6965,
    " activities": 6966,
    " Stella": 6967,
    " Pr": 6968,
    " Nothing": 6969,
    " Doctor": 6970,
    "imon": 6971,
    "child": 6972,
    "atur": 6973,
    "Alex": 6974,
    " wiping": 6975,
    " unpacked": 6976,
    " twisting": 6977,
    " swept": 6978,
    " students": 6979,
    " snat": 6980,
    " shoo": 6981,
    " rewarded": 6982,
    " rust": 6983,
    " heavier": 6984,
    " den": 6985,
    " corners": 6986,
    " burrow": 6987,
    " avoid": 6988,
    " afterwards": 6989,
    " Zippy": 6990,
    " Rain": 6991,
    " Ol": 6992,
    " Mon": 6993,
    " Hold": 6994,
    " Cara": 6995,
    " Beaky": 6996,
    " Bones": 6997,
    "yan": 6998,
    "uing": 6999,
    "uess": 7000,
    "rat": 7001,
    "ouch": 7002,
    "no": 7003,
    "but": 7004,
    "Mrs": 7005,
    " unsure": 7006,
    " tossed": 7007,
    " shrinking": 7008,
    " scooters": 7009,
    " recipe": 7010,
    " matters": 7011,
    " indeed": 7012,
    " grocer": 7013,
    " grandchild": 7014,
    " blown": 7015,
    " Mixy": 7016,
    " June": 7017,
    "ushing": 7018,
    "ronaut": 7019,
    "itches": 7020,
    "fall": 7021,
    "band": 7022,
    "Bill": 7023,
    " ripe": 7024,
    " purr": 7025,
    " preparing": 7026,
    " meals": 7027,
    " flapping": 7028,
    " det": 7029,
    " astronaut": 7030,
    " Titi": 7031,
    " Sparky": 7032,
    " Sleep": 7033,
    " Missy": 7034,
    " Hannah": 7035,
    " Dot": 7036,
    " Bloom": 7037,
    " Abbie": 7038,
    "pen": 7039,
    "iles": 7040,
    "brush": 7041,
    "bric": 7042,
    "Under": 7043,
    "Lulu": 7044,
    "Luckily": 7045,
    " wrapping": 7046,
    " suffering": 7047,
    " stem": 7048,
    " shown": 7049,
    " scored": 7050,
    " san": 7051,
    " pleasure": 7052,
    " lending": 7053,
    " including": 7054,
    " hearing": 7055,
    " guide": 7056,
    " genie": 7057,
    " fabric": 7058,
    " counts": 7059,
    " bodies": 7060,
    " aff": 7061,
    " Zee": 7062,
    "vroom": 7063,
    "rink": 7064,
    "cky": 7065,
    "aren": 7066,
    "Ruby": 7067,
    "Ribbit": 7068,
    "Pat": 7069,
    "Am": 7070,
    " tramp": 7071,
    " stain": 7072,
    " seconds": 7073,
    " sank": 7074,
    " rusty": 7075,
    " passen": 7076,
    " imagining": 7077,
    " flipped": 7078,
    " feast": 7079,
    " encourag": 7080,
    " borrowed": 7081,
    " bakery": 7082,
    " annoy": 7083,
    " angels": 7084,
    " Stretch": 7085,
    " Sl": 7086,
    "using": 7087,
    "rig": 7088,
    "ongrat": 7089,
    "onnie": 7090,
    "jo": 7091,
    "ctar": 7092,
    "athan": 7093,
    "agic": 7094,
    " wobbly": 7095,
    " trampoline": 7096,
    " tractor": 7097,
    " tiptoed": 7098,
    " ranger": 7099,
    " rotten": 7100,
    " peeking": 7101,
    " nightmares": 7102,
    " nectar": 7103,
    " marked": 7104,
    " mer": 7105,
    " figures": 7106,
    " conn": 7107,
    " conc": 7108,
    " chop": 7109,
    " achieved": 7110,
    " accomplishment": 7111,
    " Barky": 7112,
    "igers": 7113,
    "eal": 7114,
    "Mira": 7115,
    "Kiki": 7116,
    " yelp": 7117,
    " touches": 7118,
    " repa": 7119,
    " quarreled": 7120,
    " presses": 7121,
    " objects": 7122,
    " nests": 7123,
    " noodles": 7124,
    " mailed": 7125,
    " glee": 7126,
    " firefighters": 7127,
    " dancers": 7128,
    " Wooly": 7129,
    " Trust": 7130,
    " Toot": 7131,
    " Only": 7132,
    "prints": 7133,
    "ongratul": 7134,
    "itude": 7135,
    "issue": 7136,
    "fus": 7137,
    "ades": 7138,
    "Guess": 7139,
    "Clara": 7140,
    " zebras": 7141,
    " tissue": 7142,
    " tipped": 7143,
    " swir": 7144,
    " supported": 7145,
    " stolen": 7146,
    " sprang": 7147,
    " spikes": 7148,
    " singer": 7149,
    " repaired": 7150,
    " queens": 7151,
    " pupils": 7152,
    " pops": 7153,
    " frowning": 7154,
    " firefly": 7155,
    " dentist": 7156,
    " cousin": 7157,
    " Sal": 7158,
    " Luke": 7159,
    " Lizzie": 7160,
    " Anne": 7161,
    "ibi": 7162,
    "aver": 7163,
    "Millie": 7164,
    "Dolly": 7165,
    " treehouse": 7166,
    " tighter": 7167,
    " suffered": 7168,
    " squeak": 7169,
    " spins": 7170,
    " ni": 7171,
    " cott": 7172,
    " Sadly": 7173,
    " Patch": 7174,
    " Cr": 7175,
    "rigued": 7176,
    "lle": 7177,
    "immer": 7178,
    "ilver": 7179,
    "ans": 7180,
    " yum": 7181,
    " widened": 7182,
    " wept": 7183,
    " stroked": 7184,
    " sprinkled": 7185,
    " sparks": 7186,
    " reversed": 7187,
    " rushing": 7188,
    " puff": 7189,
    " leads": 7190,
    " jackets": 7191,
    " grows": 7192,
    " forgiving": 7193,
    " fluttered": 7194,
    " center": 7195,
    " coop": 7196,
    " backed": 7197,
    " Without": 7198,
    " Willy": 7199,
    " Up": 7200,
    " Snuggles": 7201,
    " Dara": 7202,
    "ces": 7203,
    "Quack": 7204,
    "Betty": 7205,
    "Always": 7206,
    " wiggly": 7207,
    " watering": 7208,
    " snatched": 7209,
    " single": 7210,
    " notes": 7211,
    " loops": 7212,
    " instruments": 7213,
    " gross": 7214,
    " fires": 7215,
    " drawn": 7216,
    " Tweetie": 7217,
    " Simon": 7218,
    " Nana": 7219,
    " Kayla": 7220,
    "vy": 7221,
    "usband": 7222,
    "ulp": 7223,
    "the": 7224,
    "obody": 7225,
    "oll": 7226,
    "ition": 7227,
    "cope": 7228,
    "cl": 7229,
    "Like": 7230,
    "Ellie": 7231,
    " waterfall": 7232,
    " suits": 7233,
    " softer": 7234,
    " snowflakes": 7235,
    " regretted": 7236,
    " rather": 7237,
    " pouted": 7238,
    " poster": 7239,
    " forgetting": 7240,
    " dip": 7241,
    " bandages": 7242,
    " aside": 7243,
    " Gary": 7244,
    " Copper": 7245,
    " Claire": 7246,
    "urious": 7247,
    "ters": 7248,
    "rup": 7249,
    "osen": 7250,
    "Take": 7251,
    "Nina": 7252,
    "Moo": 7253,
    " unw": 7254,
    " tigers": 7255,
    " ships": 7256,
    " plain": 7257,
    " healing": 7258,
    " groceries": 7259,
    " films": 7260,
    " countryside": 7261,
    " chosen": 7262,
    " changes": 7263,
    " bam": 7264,
    " amount": 7265,
    " Sophia": 7266,
    " Jacob": 7267,
    " Dina": 7268,
    "â": 7269,
    "yes": 7270,
    "ishy": 7271,
    "hog": 7272,
    "andas": 7273,
    "acky": 7274,
    "ael": 7275,
    "Zoomy": 7276,
    "Vroom": 7277,
    "Josh": 7278,
    "Car": 7279,
    "'.\"": 7280,
    " vanilla": 7281,
    " sweetest": 7282,
    " stopping": 7283,
    " stands": 7284,
    " stitches": 7285,
    " shovels": 7286,
    " seals": 7287,
    " pinching": 7288,
    " hedgehog": 7289,
    " dropping": 7290,
    " camel": 7291,
    " Patty": 7292,
    " Cow": 7293,
    "itted": 7294,
    "da": 7295,
    "arac": 7296,
    "abby": 7297,
    "Boys": 7298,
    " wobble": 7299,
    " surprising": 7300,
    " strongest": 7301,
    " sheets": 7302,
    " respond": 7303,
    " performing": 7304,
    " lessons": 7305,
    " handful": 7306,
    " husband": 7307,
    " grip": 7308,
    " ends": 7309,
    " encouraging": 7310,
    " donkey": 7311,
    " chip": 7312,
    " charac": 7313,
    " bamboo": 7314,
    " Silver": 7315,
    " Listen": 7316,
    " Julia": 7317,
    "orman": 7318,
    "ments": 7319,
    "llas": 7320,
    "ighting": 7321,
    "igning": 7322,
    "father": 7323,
    "emma": 7324,
    "cused": 7325,
    "cited": 7326,
    "awn": 7327,
    "athy": 7328,
    "Quick": 7329,
    "Penny": 7330,
    "Jump": 7331,
    " whispers": 7332,
    " wakes": 7333,
    " umbrellas": 7334,
    " talented": 7335,
    " sending": 7336,
    " seasons": 7337,
    " rains": 7338,
    " rowed": 7339,
    " performan": 7340,
    " neighbours": 7341,
    " magnif": 7342,
    " hallway": 7343,
    " hoo": 7344,
    " fart": 7345,
    " everybody": 7346,
    " among": 7347,
    " Ryan": 7348,
    " Man": 7349,
    " Jay": 7350,
    "tha": 7351,
    "oga": 7352,
    "issa": 7353,
    "endy": 7354,
    "Frank": 7355,
    "Baby": 7356,
    " wounds": 7357,
    " spells": 7358,
    " source": 7359,
    " seller": 7360,
    " robber": 7361,
    " relaxing": 7362,
    " passports": 7363,
    " neare": 7364,
    " mesmer": 7365,
    " markers": 7366,
    " labels": 7367,
    " hopeful": 7368,
    " guests": 7369,
    " greeted": 7370,
    " grassy": 7371,
    " focused": 7372,
    " flas": 7373,
    " cushions": 7374,
    " bru": 7375,
    " baskets": 7376,
    " University": 7377,
    " Play": 7378,
    " Judy": 7379,
    " Blinky": 7380,
    "river": 7381,
    "opes": 7382,
    "omp": 7383,
    "lo": 7384,
    "bbles": 7385,
    "?!\"": 7386,
    " yielded": 7387,
    " worn": 7388,
    " willing": 7389,
    " wee": 7390,
    " warmer": 7391,
    " twenty": 7392,
    " thoughts": 7393,
    " thorns": 7394,
    " stroke": 7395,
    " slips": 7396,
    " rivers": 7397,
    " reass": 7398,
    " pedaled": 7399,
    " freedom": 7400,
    " explo": 7401,
    " ev": 7402,
    " drawers": 7403,
    " coloured": 7404,
    " belts": 7405,
    " Oliver": 7406,
    " Mic": 7407,
    " Fairy": 7408,
    "yond": 7409,
    "sty": 7410,
    "retty": 7411,
    "lling": 7412,
    "illed": 7413,
    "hive": 7414,
    "ean": 7415,
    " surfboard": 7416,
    " streets": 7417,
    " smelling": 7418,
    " sharks": 7419,
    " roars": 7420,
    " rumble": 7421,
    " panicked": 7422,
    " pandas": 7423,
    " overcome": 7424,
    " lipstick": 7425,
    " health": 7426,
    " footprints": 7427,
    " flavors": 7428,
    " fits": 7429,
    " crossing": 7430,
    " cowb": 7431,
    " coloring": 7432,
    " beyond": 7433,
    " ais": 7434,
    " aimed": 7435,
    " Take": 7436,
    " Nobody": 7437,
    " Matilda": 7438,
    "wk": 7439,
    "urtles": 7440,
    "udience": 7441,
    "onna": 7442,
    "iding": 7443,
    "ichael": 7444,
    "gestion": 7445,
    "eds": 7446,
    "angle": 7447,
    "alph": 7448,
    "Tony": 7449,
    "Coco": 7450,
    "Bear": 7451,
    " und": 7452,
    " turtles": 7453,
    " surfing": 7454,
    " suggestion": 7455,
    " simply": 7456,
    " performance": 7457,
    " minded": 7458,
    " magician": 7459,
    " laying": 7460,
    " knives": 7461,
    " intrigued": 7462,
    " giggles": 7463,
    " gears": 7464,
    " forgiven": 7465,
    " disturbing": 7466,
    " beehive": 7467,
    " audience": 7468,
    " Suzie": 7469,
    " Sparkle": 7470,
    " Nice": 7471,
    " Mikey": 7472,
    " Laser": 7473,
    " Isn": 7474,
    " Henny": 7475,
    " Fire": 7476,
    " Along": 7477,
    "umbling": 7478,
    "omb": 7479,
    "ientist": 7480,
    "cho": 7481,
    "Su": 7482,
    "Hurry": 7483,
    "Bow": 7484,
    "Bang": 7485,
    " trembled": 7486,
    " tearing": 7487,
    " squeezing": 7488,
    " scientist": 7489,
    " sill": 7490,
    " repeating": 7491,
    " nur": 7492,
    " mate": 7493,
    " frowns": 7494,
    " flip": 7495,
    " fills": 7496,
    " erase": 7497,
    " encount": 7498,
    " drivers": 7499,
    " dripping": 7500,
    " def": 7501,
    " coup": 7502,
    " bits": 7503,
    " Thanks": 7504,
    " Loop": 7505,
    " Fuzzy": 7506,
    " Bibi": 7507,
    "weed": 7508,
    "pecting": 7509,
    "oni": 7510,
    "ently": 7511,
    "asty": 7512,
    "Zip": 7513,
    "Bessie": 7514,
    " wadd": 7515,
    " speeding": 7516,
    " slices": 7517,
    " secure": 7518,
    " seaweed": 7519,
    " rods": 7520,
    " reminds": 7521,
    " humming": 7522,
    " hotter": 7523,
    " horiz": 7524,
    " haircuts": 7525,
    " gardener": 7526,
    " farthest": 7527,
    " echo": 7528,
    " drifted": 7529,
    " daring": 7530,
    " crashing": 7531,
    " couple": 7532,
    " bubb": 7533,
    " beloved": 7534,
    " arr": 7535,
    " Wise": 7536,
    " Ruff": 7537,
    " Re": 7538,
    " Prince": 7539,
    " Pine": 7540,
    " Christ": 7541,
    " Chewy": 7542,
    " Cut": 7543,
    "ummies": 7544,
    "steps": 7545,
    "oring": 7546,
    "ita": 7547,
    "ility": 7548,
    "iece": 7549,
    "Try": 7550,
    " wisely": 7551,
    " wasting": 7552,
    " unwra": 7553,
    " terrified": 7554,
    " swimmer": 7555,
    " switched": 7556,
    " stored": 7557,
    " spills": 7558,
    " spies": 7559,
    " peck": 7560,
    " nervously": 7561,
    " napped": 7562,
    " marker": 7563,
    " moo": 7564,
    " loses": 7565,
    " lent": 7566,
    " joining": 7567,
    " horizon": 7568,
    " hiss": 7569,
    " gracefully": 7570,
    " footsteps": 7571,
    " envelopes": 7572,
    " colder": 7573,
    " cleaner": 7574,
    " cheers": 7575,
    " coug": 7576,
    " Bri": 7577,
    "vered": 7578,
    "uppy": 7579,
    "shm": 7580,
    "shmallow": 7581,
    "iona": 7582,
    "fire": 7583,
    "ertain": 7584,
    "cept": 7585,
    "allowed": 7586,
    "ading": 7587,
    "Slow": 7588,
    "Jul": 7589,
    "Dear": 7590,
    " â": 7591,
    " worrying": 7592,
    " tubes": 7593,
    " tested": 7594,
    " swimsuit": 7595,
    " swallowed": 7596,
    " squaw": 7597,
    " spits": 7598,
    " spice": 7599,
    " sails": 7600,
    " sale": 7601,
    " melons": 7602,
    " master": 7603,
    " lies": 7604,
    " lapt": 7605,
    " gonna": 7606,
    " focus": 7607,
    " enthusiasm": 7608,
    " die": 7609,
    " cloudy": 7610,
    " burnt": 7611,
    " breathing": 7612,
    " bravest": 7613,
    " blocked": 7614,
    " bathing": 7615,
    " aren": 7616,
    " Ot": 7617,
    " Near": 7618,
    " Ex": 7619,
    " Amelia": 7620,
    " Abi": 7621,
    " 10": 7622,
    "veral": 7623,
    "unched": 7624,
    "stalk": 7625,
    "rain": 7626,
    "oey": 7627,
    "hopper": 7628,
    "aturday": 7629,
    "Mat": 7630,
    "Jazz": 7631,
    "Chloe": 7632,
    "Alright": 7633,
    " todd": 7634,
    " tests": 7635,
    " tummies": 7636,
    " spoonful": 7637,
    " sped": 7638,
    " several": 7639,
    " screwd": 7640,
    " scraped": 7641,
    " scolds": 7642,
    " respected": 7643,
    " prayers": 7644,
    " passengers": 7645,
    " mugs": 7646,
    " marshmallow": 7647,
    " longest": 7648,
    " laptop": 7649,
    " kittens": 7650,
    " hawk": 7651,
    " evil": 7652,
    " creamy": 7653,
    " creams": 7654,
    " beanstalk": 7655,
    " bomb": 7656,
    " Joanna": 7657,
    " Flap": 7658,
    " Biggy": 7659,
    "ertie": 7660,
    "ellow": 7661,
    "attered": 7662,
    "Wake": 7663,
    "Spike": 7664,
    "Put": 7665,
    "Mine": 7666,
    " wrink": 7667,
    " whimp": 7668,
    " student": 7669,
    " squishy": 7670,
    " robots": 7671,
    " rescuing": 7672,
    " rats": 7673,
    " politely": 7674,
    " peacefully": 7675,
    " paintbrush": 7676,
    " neatly": 7677,
    " merma": 7678,
    " licking": 7679,
    " grandfather": 7680,
    " firmly": 7681,
    " bells": 7682,
    " bitten": 7683,
    " astronauts": 7684,
    " Saturday": 7685,
    " Nut": 7686,
    " Maya": 7687,
    " Fighting": 7688,
    "ounced": 7689,
    "mas": 7690,
    "iza": 7691,
    "ggy": 7692,
    "five": 7693,
    "bert": 7694,
    "atty": 7695,
    "arlings": 7696,
    "affle": 7697,
    "Pippin": 7698,
    "Mad": 7699,
    "Kim": 7700,
    "',": 7701,
    " zooms": 7702,
    " taped": 7703,
    " swap": 7704,
    " sneezes": 7705,
    " slipping": 7706,
    " slither": 7707,
    " serving": 7708,
    " scamp": 7709,
    " sy": 7710,
    " sou": 7711,
    " refreshing": 7712,
    " puzzled": 7713,
    " purrs": 7714,
    " mosquitoes": 7715,
    " miller": 7716,
    " hesitant": 7717,
    " handsome": 7718,
    " hour": 7719,
    " discussed": 7720,
    " delivering": 7721,
    " darlings": 7722,
    " crackers": 7723,
    " char": 7724,
    " bothering": 7725,
    " beetles": 7726,
    " beaver": 7727,
    " action": 7728,
    " Yet": 7729,
    " Shark": 7730,
    " Rufus": 7731,
    " Luckily": 7732,
    " Izzy": 7733,
    " Amber": 7734,
    " Ang": 7735,
    " 5": 7736,
    " 2": 7737,
    "ssy": 7738,
    "rosty": 7739,
    "rac": 7740,
    "ounce": 7741,
    "oosh": 7742,
    "over": 7743,
    "inger": 7744,
    "iel": 7745,
    "dding": 7746,
    "ails": 7747,
    "Snow": 7748,
    "David": 7749,
    "--": 7750,
    " wrigg": 7751,
    " wider": 7752,
    " waking": 7753,
    " twists": 7754,
    " sweaty": 7755,
    " stacked": 7756,
    " sniffing": 7757,
    " scattering": 7758,
    " sandcastles": 7759,
    " sandy": 7760,
    " risks": 7761,
    " prove": 7762,
    " pours": 7763,
    " occ": 7764,
    " magnets": 7765,
    " languages": 7766,
    " encouragement": 7767,
    " dollars": 7768,
    " breathed": 7769,
    " beeped": 7770,
    " Tweety": 7771,
    " Tre": 7772,
    " Share": 7773,
    " Shadow": 7774,
    " Pinchy": 7775,
    " Christmas": 7776,
    " Chip": 7777,
    "worm": 7778,
    "romise": 7779,
    "parent": 7780,
    "mies": 7781,
    "immering": 7782,
    "iam": 7783,
    "esp": 7784,
    "elie": 7785,
    "ddie": 7786,
    "daughter": 7787,
    "aint": 7788,
    "Very": 7789,
    "Lizzy": 7790,
    "Buzzy": 7791,
    "Back": 7792,
    "Aunt": 7793,
    " yelped": 7794,
    " screwdriver": 7795,
    " quieter": 7796,
    " purpose": 7797,
    " pose": 7798,
    " pills": 7799,
    " nuzz": 7800,
    " mesmerized": 7801,
    " materials": 7802,
    " mast": 7803,
    " inches": 7804,
    " grasshopper": 7805,
    " faded": 7806,
    " explains": 7807,
    " express": 7808,
    " elbow": 7809,
    " decisions": 7810,
    " crowns": 7811,
    " campfire": 7812,
    " cor": 7813,
    " congratul": 7814,
    " bicycles": 7815,
    " believing": 7816,
    " Inky": 7817,
    "hel": 7818,
    "fly": 7819,
    "ably": 7820,
    "Uncle": 7821,
    "Rock": 7822,
    "Near": 7823,
    "Katie": 7824,
    "Kate": 7825,
    " understands": 7826,
    " trusting": 7827,
    " throughout": 7828,
    " tasting": 7829,
    " sweaters": 7830,
    " shady": 7831,
    " results": 7832,
    " otters": 7833,
    " lowered": 7834,
    " height": 7835,
    " grandparent": 7836,
    " force": 7837,
    " flight": 7838,
    " encountered": 7839,
    " drown": 7840,
    " cracks": 7841,
    " behavior": 7842,
    " antic": 7843,
    " adds": 7844,
    " Wendy": 7845,
    " Softy": 7846,
    " Robert": 7847,
    " Peanut": 7848,
    " Nutty": 7849,
    " Make": 7850,
    " Fishy": 7851,
    "udged": 7852,
    "lephant": 7853,
    "ening": 7854,
    "ellie": 7855,
    "artled": 7856,
    "Olive": 7857,
    "Nice": 7858,
    "Momma": 7859,
    "Instead": 7860,
    "Goodnight": 7861,
    "Even": 7862,
    "Binky": 7863,
    " solving": 7864,
    " scampered": 7865,
    " reapp": 7866,
    " potion": 7867,
    " posit": 7868,
    " plug": 7869,
    " plucked": 7870,
    " pays": 7871,
    " nodding": 7872,
    " manag": 7873,
    " merry": 7874,
    " inj": 7875,
    " hunters": 7876,
    " gest": 7877,
    " flown": 7878,
    " familiar": 7879,
    " experien": 7880,
    " displayed": 7881,
    " cons": 7882,
    " cosy": 7883,
    " checks": 7884,
    " cheated": 7885,
    " cares": 7886,
    " Yoga": 7887,
    " Well": 7888,
    " More": 7889,
    " Louise": 7890,
    " Ly": 7891,
    " Holly": 7892,
    " Frosty": 7893,
    " Cathy": 7894,
    " Andrew": 7895,
    "while": 7896,
    "rough": 7897,
    "quid": 7898,
    "ousy": 7899,
    "ipper": 7900,
    "iley": 7901,
    "ilted": 7902,
    "found": 7903,
    "etchup": 7904,
    "ears": 7905,
    "een": 7906,
    "bell": 7907,
    "anwhile": 7908,
    "Which": 7909,
    "Too": 7910,
    "Speedy": 7911,
    "Outside": 7912,
    "Maria": 7913,
    "Freddy": 7914,
    "Finny": 7915,
    " tricycle": 7916,
    " tempt": 7917,
    " raising": 7918,
    " puck": 7919,
    " liquid": 7920,
    " heading": 7921,
    " gazing": 7922,
    " flaps": 7923,
    " firefighter": 7924,
    " elf": 7925,
    " dodged": 7926,
    " delayed": 7927,
    " clue": 7928,
    " blast": 7929,
    " backs": 7930,
    " aeroplanes": 7931,
    " Waffle": 7932,
    " Momma": 7933,
    " Meg": 7934,
    " Mother": 7935,
    " Match": 7936,
    " Jojo": 7937,
    " Greeny": 7938,
    " Granny": 7939,
    "\n \n ": 7940,
    "vant": 7941,
    "urricane": 7942,
    "sol": 7943,
    "rier": 7944,
    "ivery": 7945,
    "espite": 7946,
    "beep": 7947,
    "Two": 7948,
    "Thomas": 7949,
    "Sw": 7950,
    "Sque": 7951,
    "Play": 7952,
    "Open": 7953,
    "Leave": 7954,
    "Jan": 7955,
    "Elly": 7956,
    " within": 7957,
    " whales": 7958,
    " waddled": 7959,
    " type": 7960,
    " twinkled": 7961,
    " tweet": 7962,
    " toddler": 7963,
    " questioned": 7964,
    " pleaded": 7965,
    " permitted": 7966,
    " peep": 7967,
    " months": 7968,
    " messes": 7969,
    " munch": 7970,
    " miles": 7971,
    " knocking": 7972,
    " ketchup": 7973,
    " joins": 7974,
    " humans": 7975,
    " gobbled": 7976,
    " fights": 7977,
    " faith": 7978,
    " fant": 7979,
    " experienced": 7980,
    " ease": 7981,
    " doorbell": 7982,
    " despite": 7983,
    " designs": 7984,
    " dump": 7985,
    " cupc": 7986,
    " cubs": 7987,
    " covering": 7988,
    " cond": 7989,
    " characters": 7990,
    " born": 7991,
    " Otto": 7992,
    " Okay": 7993,
    " Martha": 7994,
    " Mousy": 7995,
    " Jean": 7996,
    " Day": 7997,
    " Chirp": 7998,
    " Ana": 7999,
    "zoom": 8000,
    "ntil": 8001,
    "mates": 8002,
    "line": 8003,
    "ipation": 8004,
    "int": 8005,
    "iment": 8006,
    "Zara": 8007,
    "Pinky": 8008,
    "Ju": 8009,
    " zigzags": 8010,
    " uniforms": 8011,
    " travels": 8012,
    " tuck": 8013,
    " tar": 8014,
    " swallow": 8015,
    " surroundings": 8016,
    " squir": 8017,
    " sports": 8018,
    " snowy": 8019,
    " snaps": 8020,
    " smashed": 8021,
    " rows": 8022,
    " resisted": 8023,
    " punishment": 8024,
    " onward": 8025,
    " occas": 8026,
    " nurses": 8027,
    " mixture": 8028,
    " meows": 8029,
    " joyful": 8030,
    " ignoring": 8031,
    " hangers": 8032,
    " friendships": 8033,
    " fleas": 8034,
    " final": 8035,
    " fantastic": 8036,
    " fif": 8037,
    " driveway": 8038,
    " disob": 8039,
    " destroying": 8040,
    " customer": 8041,
    " court": 8042,
    " banged": 8043,
    " bully": 8044,
    " automobiles": 8045,
    " artist": 8046,
    " appreciation": 8047,
    " anticipation": 8048,
    " Toys": 8049,
    " Show": 8050,
    " Say": 8051,
    " Robo": 8052,
    " Robbie": 8053,
    " Puppy": 8054,
    " Pen": 8055,
    " Gray": 8056,
    " Cle": 8057,
    " ill": 8058,
    "years": 8059,
    "sie": 8060,
    "rect": 8061,
    "mine": 8062,
    "kend": 8063,
    "inny": 8064,
    "eel": 8065,
    "crow": 8066,
    "ative": 8067,
    "Mother": 8068,
    "By": 8069,
    "Beth": 8070,
    ".'\"": 8071,
    " weekend": 8072,
    " treated": 8073,
    " tidied": 8074,
    " storekeeper": 8075,
    " sirens": 8076,
    " shinier": 8077,
    " scarecrow": 8078,
    " scen": 8079,
    " peeled": 8080,
    " pound": 8081,
    " mommies": 8082,
    " moons": 8083,
    " mermaid": 8084,
    " magazines": 8085,
    " grandson": 8086,
    " gesture": 8087,
    " floats": 8088,
    " edges": 8089,
    " dears": 8090,
    " correct": 8091,
    " congratulated": 8092,
    " combed": 8093,
    " bluebird": 8094,
    " bless": 8095,
    " aisle": 8096,
    " Yellow": 8097,
    " Wolf": 8098,
    " Since": 8099,
    " Maddie": 8100,
    " Linda": 8101,
    " Jonny": 8102,
    " Herb": 8103,
    " Gertie": 8104,
    " Gerry": 8105,
    " Elsie": 8106,
    " Chess": 8107,
    " Cammy": 8108,
    " Boat": 8109,
    "verse": 8110,
    "reverse": 8111,
    "rest": 8112,
    "pple": 8113,
    "ppies": 8114,
    "osite": 8115,
    "ordinary": 8116,
    "orter": 8117,
    "ooky": 8118,
    "ooks": 8119,
    "ollen": 8120,
    "hew": 8121,
    "ancy": 8122,
    "Ted": 8123,
    "Someone": 8124,
    "Keep": 8125,
    "Jamie": 8126,
    "Hannah": 8127,
    "Afterwards": 8128,
    " weapons": 8129,
    " toward": 8130,
    " temper": 8131,
    " target": 8132,
    " sweep": 8133,
    " swollen": 8134,
    " stepping": 8135,
    " shorts": 8136,
    " rustling": 8137,
    " reminding": 8138,
    " opposite": 8139,
    " nasty": 8140,
    " matey": 8141,
    " insp": 8142,
    " hates": 8143,
    " gasp": 8144,
    " extraordinary": 8145,
    " except": 8146,
    " deed": 8147,
    " burying": 8148,
    " braver": 8149,
    " apologised": 8150,
    " address": 8151,
    " Poor": 8152,
    " Mabel": 8153,
    " Kit": 8154,
    " Kelly": 8155,
    " Judge": 8156,
    " Janie": 8157,
    " Eric": 8158,
    " Candy": 8159,
    " Bubu": 8160,
    " Bonnie": 8161,
    " Bingo": 8162,
    " Bang": 8163,
    " Bad": 8164,
    "reg": 8165,
    "ighing": 8166,
    "eve": 8167,
    "aven": 8168,
    "Behind": 8169,
    "Abby": 8170,
    "!â.": 8171,
    " unlo": 8172,
    " squeaked": 8173,
    " soaking": 8174,
    " snuck": 8175,
    " sets": 8176,
    " sadder": 8177,
    " poses": 8178,
    " oysters": 8179,
    " nearly": 8180,
    " manners": 8181,
    " invites": 8182,
    " groan": 8183,
    " files": 8184,
    " engines": 8185,
    " date": 8186,
    " consid": 8187,
    " carries": 8188,
    " brushing": 8189,
    " bothered": 8190,
    " attem": 8191,
    " active": 8192,
    " Truck": 8193,
    " Te": 8194,
    " Silly": 8195,
    " Mint": 8196,
    " Elephant": 8197,
    " Another": 8198,
    " Any": 8199,
    "â¦": 8200,
    "water": 8201,
    "ucas": 8202,
    "tment": 8203,
    "orking": 8204,
    "lied": 8205,
    "irac": 8206,
    "ettle": 8207,
    "emies": 8208,
    "boards": 8209,
    "Carl": 8210,
    " wrinkled": 8211,
    " whoever": 8212,
    " whispering": 8213,
    " tips": 8214,
    " testing": 8215,
    " teams": 8216,
    " syrup": 8217,
    " supplied": 8218,
    " stomp": 8219,
    " stacks": 8220,
    " squeezes": 8221,
    " shrunk": 8222,
    " shrank": 8223,
    " scratching": 8224,
    " proper": 8225,
    " prick": 8226,
    " newspapers": 8227,
    " newfound": 8228,
    " minds": 8229,
    " mood": 8230,
    " kinder": 8231,
    " granddaughter": 8232,
    " glitt": 8233,
    " goo": 8234,
    " floors": 8235,
    " enemies": 8236,
    " delivery": 8237,
    " dial": 8238,
    " collap": 8239,
    " coach": 8240,
    " closing": 8241,
    " chocolates": 8242,
    " charge": 8243,
    " causing": 8244,
    " certain": 8245,
    " bends": 8246,
    " Zoey": 8247,
    " Ph": 8248,
    " Never": 8249,
    " Johnson": 8250,
    " Angel": 8251,
    "match": 8252,
    "jest": 8253,
    "inted": 8254,
    "chievous": 8255,
    "bba": 8256,
    "Shrink": 8257,
    "Ray": 8258,
    "Mo": 8259,
    "Hop": 8260,
    "Gina": 8261,
    "Friends": 8262,
    "Fifi": 8263,
    "Does": 8264,
    "Birdy": 8265,
    "Bug": 8266,
    "Bee": 8267,
    " visits": 8268,
    " trot": 8269,
    " thanking": 8270,
    " storms": 8271,
    " stamped": 8272,
    " shall": 8273,
    " self": 8274,
    " runner": 8275,
    " responded": 8276,
    " planting": 8277,
    " orders": 8278,
    " mischievous": 8279,
    " minding": 8280,
    " journeys": 8281,
    " jets": 8282,
    " jars": 8283,
    " invitations": 8284,
    " handing": 8285,
    " explorer": 8286,
    " enjoyable": 8287,
    " disc": 8288,
    " digs": 8289,
    " designing": 8290,
    " defe": 8291,
    " cells": 8292,
    " awoke": 8293,
    " army": 8294,
    " Wait": 8295,
    " Time": 8296,
    " Karen": 8297,
    " Hurricane": 8298,
    " Boom": 8299,
    "ulpture": 8300,
    "rench": 8301,
    "order": 8302,
    "meow": 8303,
    "igger": 8304,
    "iving": 8305,
    "bage": 8306,
    "atitude": 8307,
    "Red": 8308,
    "Find": 8309,
    "Choo": 8310,
    "Cindy": 8311,
    "Ball": 8312,
    "Adam": 8313,
    " whistles": 8314,
    " warri": 8315,
    " upside": 8316,
    " traveling": 8317,
    " travelling": 8318,
    " supporting": 8319,
    " suns": 8320,
    " styles": 8321,
    " strips": 8322,
    " streamers": 8323,
    " scares": 8324,
    " sculpture": 8325,
    " scri": 8326,
    " sens": 8327,
    " postman": 8328,
    " playd": 8329,
    " pancake": 8330,
    " overw": 8331,
    " obeyed": 8332,
    " odd": 8333,
    " loudest": 8334,
    " leapt": 8335,
    " fireflies": 8336,
    " dressing": 8337,
    " comforting": 8338,
    " clicked": 8339,
    " buckled": 8340,
    " beaks": 8341,
    " adults": 8342,
    " activity": 8343,
    " Wonder": 8344,
    " Terry": 8345,
    " Melissa": 8346,
    " Jon": 8347,
    " Jelly": 8348,
    " Flutter": 8349,
    " Elle": 8350,
    " Cally": 8351,
    " Beef": 8352,
    " Amanda": 8353,
    "venir": 8354,
    "tock": 8355,
    "shadow": 8356,
    "rey": 8357,
    "onse": 8358,
    "mbers": 8359,
    "ilities": 8360,
    "ayla": 8361,
    "ats": 8362,
    "acy": 8363,
    "Sun": 8364,
    "Pandy": 8365,
    "Meanwhile": 8366,
    ",'": 8367,
    " warmly": 8368,
    " vests": 8369,
    " tops": 8370,
    " threads": 8371,
    " tilted": 8372,
    " tapping": 8373,
    " souvenir": 8374,
    " slapping": 8375,
    " scram": 8376,
    " response": 8377,
    " poppies": 8378,
    " offering": 8379,
    " nearest": 8380,
    " members": 8381,
    " marshmallows": 8382,
    " magnifying": 8383,
    " locks": 8384,
    " kneeling": 8385,
    " grandparents": 8386,
    " gratitude": 8387,
    " gardens": 8388,
    " farmers": 8389,
    " exercises": 8390,
    " dresser": 8391,
    " dangers": 8392,
    " craft": 8393,
    " cleared": 8394,
    " choosing": 8395,
    " calmly": 8396,
    " burns": 8397,
    " benches": 8398,
    " belongings": 8399,
    " Until": 8400,
    " Tomorrow": 8401,
    " Todd": 8402,
    " Rel": 8403,
    " Piggy": 8404,
    " Per": 8405,
    " Fly": 8406,
    " Becky": 8407,
    " icky": 8408,
    "wise": 8409,
    "otion": 8410,
    "onies": 8411,
    "munk": 8412,
    "ici": 8413,
    "hny": 8414,
    "bbers": 8415,
    "aty": 8416,
    "adie": 8417,
    "ae": 8418,
    "Tilly": 8419,
    "Hoppy": 8420,
    "Brrr": 8421,
    " zips": 8422,
    " tumbled": 8423,
    " stroll": 8424,
    " spices": 8425,
    " shooed": 8426,
    " scurry": 8427,
    " quacks": 8428,
    " presented": 8429,
    " picnics": 8430,
    " peeped": 8431,
    " overwhel": 8432,
    " nuzzled": 8433,
    " insisting": 8434,
    " increasing": 8435,
    " glittering": 8436,
    " flashing": 8437,
    " efforts": 8438,
    " cuddles": 8439,
    " convin": 8440,
    " attempt": 8441,
    " attack": 8442,
    " annoyed": 8443,
    " actor": 8444,
    " Vicky": 8445,
    " Ugly": 8446,
    " Sofia": 8447,
    " Ratty": 8448,
    " Puff": 8449,
    " Pl": 8450,
    " Orange": 8451,
    " Liza": 8452,
    " Jacky": 8453,
    " Ivy": 8454,
    " Hor": 8455,
    " Fay": 8456,
    " Davey": 8457,
    " Bumpy": 8458,
    " Allie": 8459,
    "yler": 8460,
    "ugging": 8461,
    "sn": 8462,
    "rie": 8463,
    "rons": 8464,
    "oison": 8465,
    "ipes": 8466,
    "initely": 8467,
    "freeze": 8468,
    "form": 8469,
    "elieve": 8470,
    "ecc": 8471,
    "ecca": 8472,
    "Trust": 8473,
    "Lucky": 8474,
    "Jessie": 8475,
    "Finn": 8476,
    "Danger": 8477,
    "Br": 8478,
    "Baa": 8479,
    " weighs": 8480,
    " travelled": 8481,
    " thicker": 8482,
    " surrendered": 8483,
    " sternly": 8484,
    " steer": 8485,
    " squeaky": 8486,
    " speaks": 8487,
    " spooky": 8488,
    " shortcut": 8489,
    " scrambled": 8490,
    " reassured": 8491,
    " rout": 8492,
    " plot": 8493,
    " ponies": 8494,
    " movements": 8495,
    " laces": 8496,
    " killed": 8497,
    " inchworm": 8498,
    " gap": 8499,
    " flashed": 8500,
    " fet": 8501,
    " disappointment": 8502,
    " disappearing": 8503,
    " crocodiles": 8504,
    " crawls": 8505,
    " costs": 8506,
    " chin": 8507,
    " chill": 8508,
    " coral": 8509,
    " battle": 8510,
    " backpacks": 8511,
    " buddy": 8512,
    " aprons": 8513,
    " although": 8514,
    " afford": 8515,
    " Vroom": 8516,
    " Tia": 8517,
    " Rita": 8518,
    " Op": 8519,
    " March": 8520,
    " Michael": 8521,
    " Lia": 8522,
    " Everybody": 8523,
    " Emmy": 8524,
    " Elsa": 8525,
    " Eva": 8526,
    " Does": 8527,
    " Berry": 8528,
    " Baa": 8529,
    "unes": 8530,
    "uel": 8531,
    "rice": 8532,
    "ortun": 8533,
    "oger": 8534,
    "ili": 8535,
    "ethos": 8536,
    "etah": 8537,
    "aron": 8538,
    "Twinkle": 8539,
    "Splash": 8540,
    "Pippa": 8541,
    "Nick": 8542,
    "Never": 8543,
    "Kids": 8544,
    " yawning": 8545,
    " webs": 8546,
    " weeds": 8547,
    " unable": 8548,
    " steering": 8549,
    " stethos": 8550,
    " squished": 8551,
    " soot": 8552,
    " sincere": 8553,
    " scores": 8554,
    " robbers": 8555,
    " rewards": 8556,
    " playdate": 8557,
    " plugged": 8558,
    " overwhelmed": 8559,
    " opportun": 8560,
    " meowing": 8561,
    " funn": 8562,
    " freezing": 8563,
    " form": 8564,
    " fluttering": 8565,
    " finishing": 8566,
    " earned": 8567,
    " duckling": 8568,
    " drying": 8569,
    " dryer": 8570,
    " drift": 8571,
    " doorway": 8572,
    " dock": 8573,
    " disobey": 8574,
    " discou": 8575,
    " damaged": 8576,
    " cops": 8577,
    " connected": 8578,
    " conqu": 8579,
    " cheetah": 8580,
    " bride": 8581,
    " blamed": 8582,
    " becomes": 8583,
    " bathed": 8584,
    " ass": 8585,
    " anger": 8586,
    " Taking": 8587,
    " Ready": 8588,
    " Ralph": 8589,
    " Quacky": 8590,
    " Playing": 8591,
    " Nathan": 8592,
    " Minnie": 8593,
    " Helen": 8594,
    " Grumpy": 8595,
    " Friend": 8596,
    "what": 8597,
    "uffin": 8598,
    "raw": 8599,
    "ril": 8600,
    "othy": 8601,
    "nor": 8602,
    "ivi": 8603,
    "ets": 8604,
    "erg": 8605,
    "elle": 8606,
    "covered": 8607,
    "cat": 8608,
    "byes": 8609,
    "arrow": 8610,
    "Suzy": 8611,
    "Since": 8612,
    "Rosie": 8613,
    "Pip": 8614,
    "Magic": 8615,
    "Lena": 8616,
    "Julie": 8617,
    "Grow": 8618,
    "Bluey": 8619,
    "Abigail": 8620,
    "!â": 8621,
    " yumm": 8622,
    " trading": 8623,
    " temperature": 8624,
    " swayed": 8625,
    " stethoscope": 8626,
    " spoiling": 8627,
    " soapy": 8628,
    " snapping": 8629,
    " smartest": 8630,
    " shorter": 8631,
    " scrub": 8632,
    " sax": 8633,
    " rays": 8634,
    " probably": 8635,
    " pepperoni": 8636,
    " poop": 8637,
    " moat": 8638,
    " mats": 8639,
    " luckily": 8640,
    " inspired": 8641,
    " hoops": 8642,
    " heels": 8643,
    " hatch": 8644,
    " goodbyes": 8645,
    " gasps": 8646,
    " forests": 8647,
    " fishes": 8648,
    " experiences": 8649,
    " expecting": 8650,
    " dollar": 8651,
    " definitely": 8652,
    " customers": 8653,
    " crowded": 8654,
    " cottage": 8655,
    " correctly": 8656,
    " convers": 8657,
    " common": 8658,
    " cloths": 8659,
    " cheat": 8660,
    " bounces": 8661,
    " beaming": 8662,
    " admiration": 8663,
    " aim": 8664,
    " Yawn": 8665,
    " Tess": 8666,
    " Swim": 8667,
    " Stan": 8668,
    " Rusty": 8669,
    " Nora": 8670,
    " Ne": 8671,
    " Jackie": 8672,
    " Freddie": 8673,
    " Flora": 8674,
    " Excited": 8675,
    " Eddie": 8676,
    " Despite": 8677,
    " Crane": 8678,
    " Chick": 8679,
    " Although": 8680,
    "val": 8681,
    "urrender": 8682,
    "ument": 8683,
    "under": 8684,
    "pples": 8685,
    "oss": 8686,
    "imbo": 8687,
    "evin": 8688,
    "acock": 8689,
    "Mouse": 8690,
    "Dr": 8691,
    "Bub": 8692,
    "Ava": 8693,
    "Arrr": 8694,
    " whir": 8695,
    " tidying": 8696,
    " stuffing": 8697,
    " sprays": 8698,
    " spy": 8699,
    " sooner": 8700,
    " snug": 8701,
    " suck": 8702,
    " recorder": 8703,
    " rely": 8704,
    " rumbling": 8705,
    " rack": 8706,
    " pressing": 8707,
    " positive": 8708,
    " peacock": 8709,
    " parks": 8710,
    " paddling": 8711,
    " packages": 8712,
    " pant": 8713,
    " numbered": 8714,
    " messed": 8715,
    " masterp": 8716,
    " massages": 8717,
    " loc": 8718,
    " forgiveness": 8719,
    " forts": 8720,
    " elect": 8721,
    " echoed": 8722,
    " drowned": 8723,
    " demanding": 8724,
    " decoration": 8725,
    " decl": 8726,
    " coughed": 8727,
    " convinced": 8728,
    " chilly": 8729,
    " cables": 8730,
    " business": 8731,
    " brains": 8732,
    " behaviour": 8733,
    " aware": 8734,
    " annoying": 8735,
    " Zipper": 8736,
    " Whoever": 8737,
    " Whee": 8738,
    " Use": 8739,
    " Rina": 8740,
    " Jody": 8741,
    " Gl": 8742,
    " Gilly": 8743,
    " Flick": 8744,
    " Fle": 8745,
    " Fiona": 8746,
    " Chomp": 8747,
    " Brush": 8748,
    " Ali": 8749,
    " Alarm": 8750,
    " Ag": 8751,
    "vor": 8752,
    "uum": 8753,
    "roken": 8754,
    "of": 8755,
    "lls": 8756,
    "its": 8757,
    "isc": 8758,
    "idey": 8759,
    "bu": 8760,
    "bbit": 8761,
    "alth": 8762,
    "alf": 8763,
    "Honey": 8764,
    "Hmm": 8765,
    "Being": 8766,
    "Both": 8767,
    "Bo": 8768,
    "Anne": 8769,
    "Ahoy": 8770,
    " wriggled": 8771,
    " whoosh": 8772,
    " vacuum": 8773,
    " unfortunately": 8774,
    " trotted": 8775,
    " toolbox": 8776,
    " timid": 8777,
    " thump": 8778,
    " teachers": 8779,
    " soda": 8780,
    " snuggle": 8781,
    " sneaks": 8782,
    " snort": 8783,
    " scowl": 8784,
    " saxophone": 8785,
    " prizes": 8786,
    " prevented": 8787,
    " palms": 8788,
    " owns": 8789,
    " oldest": 8790,
    " masterpiece": 8791,
    " majest": 8792,
    " mirac": 8793,
    " limp": 8794,
    " inter": 8795,
    " hooves": 8796,
    " honking": 8797,
    " foreshadow": 8798,
    " fans": 8799,
    " examining": 8800,
    " dreamt": 8801,
    " dev": 8802,
    " cowboy": 8803,
    " cotton": 8804,
    " connect": 8805,
    " condition": 8806,
    " cleans": 8807,
    " chicks": 8808,
    " arranged": 8809,
    " answering": 8810,
    " announced": 8811,
    " affect": 8812,
    " acts": 8813,
    " Yummy": 8814,
    " Wiggles": 8815,
    " Tooth": 8816,
    " Too": 8817,
    " Shelly": 8818,
    " Salt": 8819,
    " Kip": 8820,
    " Ice": 8821,
    " Hello": 8822,
    " Honey": 8823,
    " Goose": 8824,
    " Gemma": 8825,
    " Eat": 8826,
    " Cloud": 8827,
    " Cici": 8828,
    "tw": 8829,
    "racted": 8830,
    "ror": 8831,
    "ouble": 8832,
    "otte": 8833,
    "ngest": 8834,
    "lescope": 8835,
    "iscuit": 8836,
    "idy": 8837,
    "good": 8838,
    "entr": 8839,
    "arlotte": 8840,
    "acing": 8841,
    "Tree": 8842,
    "Squ": 8843,
    "Sadly": 8844,
    "Rachel": 8845,
    "Owl": 8846,
    "Only": 8847,
    "Fl": 8848,
    "Eat": 8849,
    "Deal": 8850,
    " youngest": 8851,
    " welcoming": 8852,
    " weighing": 8853,
    " wealth": 8854,
    " visitors": 8855,
    " trigger": 8856,
    " telescope": 8857,
    " structures": 8858,
    " stun": 8859,
    " springing": 8860,
    " sprout": 8861,
    " spilling": 8862,
    " spears": 8863,
    " skies": 8864,
    " singers": 8865,
    " shyly": 8866,
    " shh": 8867,
    " seagulls": 8868,
    " ramp": 8869,
    " nights": 8870,
    " laws": 8871,
    " kangaroos": 8872,
    " guarding": 8873,
    " forgives": 8874,
    " failed": 8875,
    " exploded": 8876,
    " discouraged": 8877,
    " declared": 8878,
    " croaked": 8879,
    " crickets": 8880,
    " creak": 8881,
    " concentr": 8882,
    " collapsed": 8883,
    " chopped": 8884,
    " chews": 8885,
    " cheating": 8886,
    " chatting": 8887,
    " bubbling": 8888,
    " bruises": 8889,
    " bowing": 8890,
    " blushed": 8891,
    " accidents": 8892,
    " Win": 8893,
    " Snake": 8894,
    " Sleepy": 8895,
    " Rainbow": 8896,
    " Ricky": 8897,
    " Hops": 8898,
    " Cozy": 8899,
    " Cocoa": 8900,
    " Cord": 8901,
    " Brian": 8902,
    "zip": 8903,
    "ssib": 8904,
    "osa": 8905,
    "opsy": 8906,
    "mers": 8907,
    "iolet": 8908,
    "icking": 8909,
    "ibbles": 8910,
    "esse": 8911,
    "bank": 8912,
    "asers": 8913,
    "Whenever": 8914,
    "Squeaky": 8915,
    "Lizzie": 8916,
    "Im": 8917,
    "Each": 8918,
    "Bounce": 8919,
    " yummiest": 8920,
    " winks": 8921,
    " vibr": 8922,
    " unpacking": 8923,
    " types": 8924,
    " traps": 8925,
    " tin": 8926,
    " sweeter": 8927,
    " surv": 8928,
    " stall": 8929,
    " smelt": 8930,
    " sleeps": 8931,
    " scurrying": 8932,
    " repairing": 8933,
    " rebu": 8934,
    " polar": 8935,
    " possib": 8936,
    " outfits": 8937,
    " offic": 8938,
    " observing": 8939,
    " member": 8940,
    " marking": 8941,
    " lull": 8942,
    " hisses": 8943,
    " hesitation": 8944,
    " facing": 8945,
    " exams": 8946,
    " electric": 8947,
    " crystals": 8948,
    " classmates": 8949,
    " chipmunk": 8950,
    " cafe": 8951,
    " breaths": 8952,
    " argument": 8953,
    " approach": 8954,
    " Zack": 8955,
    " Vivi": 8956,
    " Super": 8957,
    " Sean": 8958,
    " Pig": 8959,
    " Oh": 8960,
    " Magic": 8961,
    " Helping": 8962,
    " Glow": 8963,
    " Duke": 8964,
    " Curious": 8965,
    " Cook": 8966,
    " Brain": 8967,
    " Animal": 8968,
    " ''": 8969,
    "ugar": 8970,
    "snap": 8971,
    "rent": 8972,
    "rob": 8973,
    "rily": 8974,
    "oor": 8975,
    "ispy": 8976,
    "ironment": 8977,
    "ircle": 8978,
    "icious": 8979,
    "hole": 8980,
    "eeling": 8981,
    "eat": 8982,
    "apple": 8983,
    "allie": 8984,
    "People": 8985,
    "Mon": 8986,
    "Milo": 8987,
    "Karen": 8988,
    "Jacob": 8989,
    "Got": 8990,
    "Claire": 8991,
    "Any": 8992,
    " winners": 8993,
    " unwrapped": 8994,
    " unfair": 8995,
    " talents": 8996,
    " tale": 8997,
    " stew": 8998,
    " statues": 8999,
    " squinted": 9000,
    " sobbing": 9001,
    " skirts": 9002,
    " shrugs": 9003,
    " riverbank": 9004,
    " ribbit": 9005,
    " rewarding": 9006,
    " reappeared": 9007,
    " prickly": 9008,
    " pleas": 9009,
    " opinions": 9010,
    " officers": 9011,
    " models": 9012,
    " messier": 9013,
    " meadows": 9014,
    " munched": 9015,
    " jugg": 9016,
    " honks": 9017,
    " heaven": 9018,
    " groaned": 9019,
    " globe": 9020,
    " ghosts": 9021,
    " generosity": 9022,
    " folds": 9023,
    " flips": 9024,
    " faint": 9025,
    " explaining": 9026,
    " erasers": 9027,
    " environment": 9028,
    " diamonds": 9029,
    " desperate": 9030,
    " cooperate": 9031,
    " comets": 9032,
    " clut": 9033,
    " brightest": 9034,
    " attitude": 9035,
    " Tell": 9036,
    " Startled": 9037,
    " Smoke": 9038,
    " Settle": 9039,
    " Reliable": 9040,
    " Puffy": 9041,
    " Pick": 9042,
    " Microscope": 9043,
    " Muffin": 9044,
    " Kn": 9045,
    " Hurry": 9046,
    " Giant": 9047,
    " Flo": 9048,
    " Faye": 9049,
    " Daniel": 9050,
    " Coby": 9051,
    " Bert": 9052,
    " Bell": 9053,
    "yle": 9054,
    "this": 9055,
    "sey": 9056,
    "rowave": 9057,
    "izzes": 9058,
    "iter": 9059,
    "irty": 9060,
    "iens": 9061,
    "guess": 9062,
    "everse": 9063,
    "elope": 9064,
    "edic": 9065,
    "dog": 9066,
    "cycles": 9067,
    "ching": 9068,
    "chief": 9069,
    "broken": 9070,
    "asmine": 9071,
    "aptain": 9072,
    "agine": 9073,
    "acles": 9074,
    "abelle": 9075,
    "Zigzag": 9076,
    "Pretty": 9077,
    "Nothing": 9078,
    "Gigi": 9079,
    "Catch": 9080,
    " wiggling": 9081,
    " whined": 9082,
    " undone": 9083,
    " twirls": 9084,
    " trusts": 9085,
    " troubles": 9086,
    " towns": 9087,
    " topp": 9088,
    " tickles": 9089,
    " tunes": 9090,
    " stretches": 9091,
    " snowflake": 9092,
    " shares": 9093,
    " shimmering": 9094,
    " rin": 9095,
    " providing": 9096,
    " pedaling": 9097,
    " particularly": 9098,
    " microwave": 9099,
    " meets": 9100,
    " manager": 9101,
    " mend": 9102,
    " lunchtime": 9103,
    " leans": 9104,
    " hissing": 9105,
    " halves": 9106,
    " formed": 9107,
    " flock": 9108,
    " dripped": 9109,
    " detect": 9110,
    " bond": 9111,
    " bellies": 9112,
    " artwork": 9113,
    " arrest": 9114,
    " applauding": 9115,
    " apology": 9116,
    " aliens": 9117,
    " Tippy": 9118,
    " Swimmy": 9119,
    " Pretty": 9120,
    " Maddy": 9121,
    " Moppy": 9122,
    " Math": 9123,
    " Law": 9124,
    " Im": 9125,
    " Graceful": 9126,
    " Dilly": 9127,
    " Climb": 9128,
    "war": 9129,
    "stered": 9130,
    "storm": 9131,
    "shaped": 9132,
    "sess": 9133,
    "off": 9134,
    "nnie": 9135,
    "mo": 9136,
    "mered": 9137,
    "mel": 9138,
    "keepers": 9139,
    "inct": 9140,
    "ictor": 9141,
    "hnnie": 9142,
    "esses": 9143,
    "endant": 9144,
    "bee": 9145,
    "antha": 9146,
    "Tara": 9147,
    "Snap": 9148,
    "Ne": 9149,
    "Maya": 9150,
    "Liz": 9151,
    "Isn": 9152,
    "Excited": 9153,
    " wiser": 9154,
    " whimpered": 9155,
    " whines": 9156,
    " waters": 9157,
    " swirls": 9158,
    " swirl": 9159,
    " shines": 9160,
    " servant": 9161,
    " sends": 9162,
    " scoops": 9163,
    " royal": 9164,
    " raking": 9165,
    " opportunity": 9166,
    " necks": 9167,
    " mustn": 9168,
    " momma": 9169,
    " meaning": 9170,
    " marve": 9171,
    " lullaby": 9172,
    " lowers": 9173,
    " kit": 9174,
    " jumper": 9175,
    " intently": 9176,
    " honesty": 9177,
    " heartbroken": 9178,
    " handles": 9179,
    " haird": 9180,
    " garbage": 9181,
    " fifty": 9182,
    " fetched": 9183,
    " exch": 9184,
    " elders": 9185,
    " discoveries": 9186,
    " dumb": 9187,
    " countries": 9188,
    " conquered": 9189,
    " commun": 9190,
    " cheerfully": 9191,
    " carts": 9192,
    " bats": 9193,
    " allowing": 9194,
    " accomplished": 9195,
    " William": 9196,
    " Twisty": 9197,
    " Skeleton": 9198,
    " Roo": 9199,
    " Ron": 9200,
    " Ria": 9201,
    " Quickly": 9202,
    " Pop": 9203,
    " Pep": 9204,
    " Open": 9205,
    " Mina": 9206,
    " Floppy": 9207,
    " Dream": 9208,
    " Bubba": 9209,
    " Blacky": 9210,
    "vince": 9211,
    "ssess": 9212,
    "poison": 9213,
    "pher": 9214,
    "ots": 9215,
    "ossom": 9216,
    "orth": 9217,
    "onnor": 9218,
    "ocular": 9219,
    "melon": 9220,
    "ms": 9221,
    "lt": 9222,
    "kids": 9223,
    "izab": 9224,
    "izabeth": 9225,
    "isible": 9226,
    "ightning": 9227,
    "icate": 9228,
    "herry": 9229,
    "free": 9230,
    "erts": 9231,
    "erk": 9232,
    "enna": 9233,
    "elling": 9234,
    "cessary": 9235,
    "ashes": 9236,
    "arted": 9237,
    "Three": 9238,
    "Steve": 9239,
    "Slowly": 9240,
    "Sit": 9241,
    "Je": 9242,
    "Doctor": 9243,
    " writer": 9244,
    " watermelon": 9245,
    " washes": 9246,
    " warrior": 9247,
    " wig": 9248,
    " underwater": 9249,
    " tickling": 9250,
    " thirty": 9251,
    " surely": 9252,
    " stomachs": 9253,
    " sometime": 9254,
    " shave": 9255,
    " reun": 9256,
    " quacking": 9257,
    " quizzes": 9258,
    " possess": 9259,
    " parted": 9260,
    " pouch": 9261,
    " offers": 9262,
    " occasion": 9263,
    " nin": 9264,
    " moonlight": 9265,
    " mattresses": 9266,
    " maps": 9267,
    " listener": 9268,
    " jud": 9269,
    " invisible": 9270,
    " guards": 9271,
    " grandkids": 9272,
    " fond": 9273,
    " foggy": 9274,
    " experiment": 9275,
    " expert": 9276,
    " discussing": 9277,
    " details": 9278,
    " cutter": 9279,
    " crops": 9280,
    " cowboys": 9281,
    " conversation": 9282,
    " convince": 9283,
    " compete": 9284,
    " chili": 9285,
    " centre": 9286,
    " builder": 9287,
    " bold": 9288,
    " blond": 9289,
    " auntie": 9290,
    " Twist": 9291,
    " Through": 9292,
    " Tiger": 9293,
    " Step": 9294,
    " Smo": 9295,
    " Seeing": 9296,
    " Nibbles": 9297,
    " Mine": 9298,
    " Manny": 9299,
    " Lenny": 9300,
    " Josie": 9301,
    " Jet": 9302,
    " Hugo": 9303,
    " Hunt": 9304,
    " Fix": 9305,
    " Dusty": 9306,
    " Drag": 9307,
    " Crabby": 9308,
    " Chris": 9309,
    " Bro": 9310,
    " Books": 9311,
    " ouch": 9312,
    "upt": 9313,
    "stal": 9314,
    "sers": 9315,
    "rystal": 9316,
    "pan": 9317,
    "ider": 9318,
    "idence": 9319,
    "creams": 9320,
    "bl": 9321,
    "Snowy": 9322,
    "Mix": 9323,
    "Mittens": 9324,
    "Lou": 9325,
    "Jess": 9326,
    "Hope": 9327,
    "Gr": 9328,
    "Frog": 9329,
    "Climb": 9330,
    " zookeepers": 9331,
    " windowsill": 9332,
    " visitor": 9333,
    " unst": 9334,
    " toppings": 9335,
    " sweetly": 9336,
    " surfed": 9337,
    " suggests": 9338,
    " stretchy": 9339,
    " strum": 9340,
    " situations": 9341,
    " seeking": 9342,
    " revealing": 9343,
    " pilots": 9344,
    " phones": 9345,
    " parrots": 9346,
    " nibbled": 9347,
    " mustered": 9348,
    " motorcycles": 9349,
    " mindful": 9350,
    " luckiest": 9351,
    " loyalty": 9352,
    " lump": 9353,
    " horri": 9354,
    " haven": 9355,
    " huff": 9356,
    " glided": 9357,
    " glared": 9358,
    " ger": 9359,
    " emerged": 9360,
    " desserts": 9361,
    " dep": 9362,
    " curl": 9363,
    " clip": 9364,
    " clerk": 9365,
    " checkout": 9366,
    " cages": 9367,
    " burger": 9368,
    " birdhouse": 9369,
    " binocular": 9370,
    " beast": 9371,
    " awful": 9372,
    " attacked": 9373,
    " amused": 9374,
    " Yum": 9375,
    " Woolly": 9376,
    " Tyler": 9377,
    " Tip": 9378,
    " Sweet": 9379,
    " Scissors": 9380,
    " Sami": 9381,
    " Sugar": 9382,
    " Ruth": 9383,
    " Ronny": 9384,
    " Ringo": 9385,
    " Past": 9386,
    " Nurse": 9387,
    " Marie": 9388,
    " Mart": 9389,
    " Mag": 9390,
    " Lucas": 9391,
    " Kevin": 9392,
    " Joke": 9393,
    " Joan": 9394,
    " Jumpy": 9395,
    " Jetty": 9396,
    " Ha": 9397,
    " Greg": 9398,
    " Ginger": 9399,
    " Gill": 9400,
    " Dogs": 9401,
    " Del": 9402,
    " Cro": 9403,
    " Circle": 9404,
    " Cars": 9405,
    "udy": 9406,
    "ths": 9407,
    "that": 9408,
    "pril": 9409,
    "ouqu": 9410,
    "onk": 9411,
    "ldy": 9412,
    "lish": 9413,
    "istory": 9414,
    "ically": 9415,
    "hile": 9416,
    "faction": 9417,
    "etal": 9418,
    "atre": 9419,
    "asha": 9420,
    "anced": 9421,
    "Want": 9422,
    "Should": 9423,
    "Sophia": 9424,
    "Say": 9425,
    "Robby": 9426,
    "Rain": 9427,
    "Jeff": 9428,
    "June": 9429,
    "Fire": 9430,
    "Cra": 9431,
    " worst": 9432,
    " waded": 9433,
    " tongues": 9434,
    " theatre": 9435,
    " teapot": 9436,
    " swapped": 9437,
    " successfully": 9438,
    " sprinkle": 9439,
    " snorted": 9440,
    " slithered": 9441,
    " sleepover": 9442,
    " seriously": 9443,
    " sevent": 9444,
    " scut": 9445,
    " scent": 9446,
    " satisfaction": 9447,
    " rips": 9448,
    " responsib": 9449,
    " realizing": 9450,
    " realizes": 9451,
    " rags": 9452,
    " puffed": 9453,
    " pokes": 9454,
    " popping": 9455,
    " pineapple": 9456,
    " opt": 9457,
    " munching": 9458,
    " miracle": 9459,
    " messages": 9460,
    " mattered": 9461,
    " mailing": 9462,
    " lob": 9463,
    " intelligence": 9464,
    " instantly": 9465,
    " hoses": 9466,
    " heights": 9467,
    " hangs": 9468,
    " hob": 9469,
    " guesses": 9470,
    " gooey": 9471,
    " germs": 9472,
    " fris": 9473,
    " foam": 9474,
    " fries": 9475,
    " fade": 9476,
    " explode": 9477,
    " dragonfly": 9478,
    " doorstep": 9479,
    " doves": 9480,
    " disagreeing": 9481,
    " ding": 9482,
    " dedic": 9483,
    " compared": 9484,
    " circ": 9485,
    " caps": 9486,
    " caw": 9487,
    " bushy": 9488,
    " builders": 9489,
    " bubbly": 9490,
    " brakes": 9491,
    " bending": 9492,
    " bouqu": 9493,
    " biscuit": 9494,
    " awhile": 9495,
    " ages": 9496,
    " ability": 9497,
    " Trevor": 9498,
    " Thunder": 9499,
    " Tears": 9500,
    " Sundays": 9501,
    " Spidey": 9502,
    " Slinky": 9503,
    " Rumble": 9504,
    " Roger": 9505,
    " Read": 9506,
    " Phil": 9507,
    " Percy": 9508,
    " Mixie": 9509,
    " Missile": 9510,
    " Mae": 9511,
    " Mason": 9512,
    " Lina": 9513,
    " Life": 9514,
    " JoJo": 9515,
    " Janey": 9516,
    " Janet": 9517,
    " Friendship": 9518,
    " Dull": 9519,
    " Care": 9520,
    " Animals": 9521,
    " Achoo": 9522,
    " Ac": 9523,
    "stantly": 9524,
    "solut": 9525,
    "screen": 9526,
    "rupted": 9527,
    "resser": 9528,
    "rum": 9529,
    "peed": 9530,
    "ously": 9531,
    "lers": 9532,
    "irl": 9533,
    "imba": 9534,
    "iciest": 9535,
    "ior": 9536,
    "hings": 9537,
    "eremy": 9538,
    "ebby": 9539,
    "cie": 9540,
    "arla": 9541,
    "antrum": 9542,
    "andon": 9543,
    "ample": 9544,
    "alloween": 9545,
    "ai": 9546,
    "afe": 9547,
    "Robbie": 9548,
    "Reverse": 9549,
    "OP": 9550,
    "NG": 9551,
    "Maddie": 9552,
    "Joy": 9553,
    "Freeze": 9554,
    "!'\"": 9555,
    " wobbling": 9556,
    " winding": 9557,
    " weaker": 9558,
    " wanna": 9559,
    " trans": 9560,
    " tantrum": 9561,
    " sunscreen": 9562,
    " squirted": 9563,
    " separating": 9564,
    " sav": 9565,
    " repeats": 9566,
    " racer": 9567,
    " prog": 9568,
    " prank": 9569,
    " popsic": 9570,
    " poll": 9571,
    " peels": 9572,
    " passes": 9573,
    " ostriches": 9574,
    " nudged": 9575,
    " nations": 9576,
    " mysteries": 9577,
    " mooed": 9578,
    " mashed": 9579,
    " lightly": 9580,
    " keyhole": 9581,
    " hooks": 9582,
    " host": 9583,
    " hairdresser": 9584,
    " guardian": 9585,
    " fuss": 9586,
    " foxes": 9587,
    " flashes": 9588,
    " finishes": 9589,
    " example": 9590,
    " enthusiastically": 9591,
    " enemy": 9592,
    " emb": 9593,
    " drip": 9594,
    " differently": 9595,
    " cranes": 9596,
    " cooed": 9597,
    " contained": 9598,
    " computers": 9599,
    " cherish": 9600,
    " checking": 9601,
    " cheaper": 9602,
    " bumping": 9603,
    " bouquet": 9604,
    " binoculars": 9605,
    " attempts": 9606,
    " appreciated": 9607,
    " afar": 9608,
    " adop": 9609,
    " abandon": 9610,
    " arom": 9611,
    " Zeb": 9612,
    " Violet": 9613,
    " Sadie": 9614,
    " Park": 9615,
    " Opera": 9616,
    " Oxy": 9617,
    " Monster": 9618,
    " Monkey": 9619,
    " Looking": 9620,
    " Jesse": 9621,
    " Hat": 9622,
    " Fun": 9623,
    " De": 9624,
    " Coal": 9625,
    " Captain": 9626,
    " Brad": 9627,
    " Auntie": 9628,
    " Apple": 9629,
    " Aaron": 9630,
    " 4": 9631,
    " \n\n": 9632,
    "why": 9633,
    "welcome": 9634,
    "uses": 9635,
    "solutely": 9636,
    "osp": 9637,
    "ortunately": 9638,
    "lest": 9639,
    "iring": 9640,
    "ifully": 9641,
    "ergic": 9642,
    "epy": 9643,
    "eek": 9644,
    "ala": 9645,
    "Whose": 9646,
    "Wally": 9647,
    "Still": 9648,
    "Squirrel": 9649,
    "Susan": 9650,
    "Sm": 9651,
    "Sc": 9652,
    "Ralph": 9653,
    "Playing": 9654,
    "Papa": 9655,
    "Ooh": 9656,
    "Matt": 9657,
    "Liza": 9658,
    "Lia": 9659,
    "Jackie": 9660,
    "Imagine": 9661,
    "Eww": 9662,
    "Cara": 9663,
    "Bubbles": 9664,
    "Boom": 9665,
    "?â.": 9666,
    "\"!": 9667,
    " wrapper": 9668,
    " whiskers": 9669,
    " whipped": 9670,
    " unlocking": 9671,
    " unzip": 9672,
    " tempting": 9673,
    " temptation": 9674,
    " striking": 9675,
    " stings": 9676,
    " squawked": 9677,
    " squawk": 9678,
    " slime": 9679,
    " sus": 9680,
    " rotted": 9681,
    " returning": 9682,
    " rebuild": 9683,
    " realise": 9684,
    " rails": 9685,
    " property": 9686,
    " praise": 9687,
    " possibilities": 9688,
    " pleasant": 9689,
    " petting": 9690,
    " painful": 9691,
    " owls": 9692,
    " nibble": 9693,
    " nearer": 9694,
    " natur": 9695,
    " medium": 9696,
    " local": 9697,
    " levers": 9698,
    " level": 9699,
    " leaking": 9700,
    " ladybugs": 9701,
    " interrupted": 9702,
    " instrument": 9703,
    " instinct": 9704,
    " improving": 9705,
    " hundreds": 9706,
    " helicopters": 9707,
    " habit": 9708,
    " grump": 9709,
    " goodies": 9710,
    " glittered": 9711,
    " gummy": 9712,
    " frisbee": 9713,
    " floppy": 9714,
    " fixer": 9715,
    " fascinating": 9716,
    " fail": 9717,
    " dodging": 9718,
    " disaster": 9719,
    " differences": 9720,
    " daily": 9721,
    " cupcakes": 9722,
    " cupcake": 9723,
    " coolest": 9724,
    " confidence": 9725,
    " competing": 9726,
    " charity": 9727,
    " capes": 9728,
    " buys": 9729,
    " bulbs": 9730,
    " bund": 9731,
    " boards": 9732,
    " beautifully": 9733,
    " aroma": 9734,
    " allergic": 9735,
    " airplanes": 9736,
    " Twink": 9737,
    " Robin": 9738,
    " Price": 9739,
    " Outside": 9740,
    " Off": 9741,
    " Nelly": 9742,
    " Megan": 9743,
    " Kyle": 9744,
    " Ind": 9745,
    " Halloween": 9746,
    " Flexible": 9747,
    " Flute": 9748,
    " Fluff": 9749,
    " Elizabeth": 9750,
    " Eliza": 9751,
    " Eating": 9752,
    " Dragon": 9753,
    " Din": 9754,
    " CD": 9755,
    " Butter": 9756,
    " Barry": 9757,
    "\n \n \n \n ": 9758,
    "uries": 9759,
    "stand": 9760,
    "rings": 9761,
    "oyal": 9762,
    "ooh": 9763,
    "oard": 9764,
    "ingly": 9765,
    "icent": 9766,
    "guise": 9767,
    "ggles": 9768,
    "gra": 9769,
    "elve": 9770,
    "des": 9771,
    "ders": 9772,
    "cloth": 9773,
    "cra": 9774,
    "cer": 9775,
    "boos": 9776,
    "atest": 9777,
    "aret": 9778,
    "andra": 9779,
    "andle": 9780,
    "ances": 9781,
    "ani": 9782,
    "adually": 9783,
    "Zoe": 9784,
    "Spring": 9785,
    "Something": 9786,
    "Sof": 9787,
    "Sk": 9788,
    "OO": 9789,
    "More": 9790,
    "Michael": 9791,
    "Many": 9792,
    "Johny": 9793,
    "HE": 9794,
    "Gogo": 9795,
    "Dino": 9796,
    "Chicky": 9797,
    "Blink": 9798,
    "Bun": 9799,
    "Another": 9800,
    "Ant": 9801,
    "Ally": 9802,
    " wolves": 9803,
    " wrench": 9804,
    " vegg": 9805,
    " twelve": 9806,
    " transform": 9807,
    " tempted": 9808,
    " survive": 9809,
    " stains": 9810,
    " softened": 9811,
    " shattered": 9812,
    " sensation": 9813,
    " seashe": 9814,
    " scutt": 9815,
    " sinking": 9816,
    " roller": 9817,
    " rinse": 9818,
    " reversing": 9819,
    " razors": 9820,
    " ratt": 9821,
    " riddle": 9822,
    " peg": 9823,
    " peak": 9824,
    " pipes": 9825,
    " papa": 9826,
    " ordering": 9827,
    " noticing": 9828,
    " necessary": 9829,
    " natural": 9830,
    " musicians": 9831,
    " marveled": 9832,
    " lookout": 9833,
    " lasers": 9834,
    " kissing": 9835,
    " imaginations": 9836,
    " holidays": 9837,
    " hatched": 9838,
    " harvest": 9839,
    " grumbled": 9840,
    " goggles": 9841,
    " gul": 9842,
    " funniest": 9843,
    " frustration": 9844,
    " fourth": 9845,
    " facts": 9846,
    " escap": 9847,
    " disguise": 9848,
    " deeply": 9849,
    " dedication": 9850,
    " current": 9851,
    " cupboards": 9852,
    " crushed": 9853,
    " coughing": 9854,
    " clips": 9855,
    " certainly": 9856,
    " cuc": 9857,
    " buckles": 9858,
    " baa": 9859,
    " aston": 9860,
    " angrier": 9861,
    " admit": 9862,
    " actors": 9863,
    " abandoned": 9864,
    " aboard": 9865,
    " aback": 9866,
    " Zog": 9867,
    " Winky": 9868,
    " Tidy": 9869,
    " Switch": 9870,
    " Spray": 9871,
    " Spin": 9872,
    " School": 9873,
    " Ring": 9874,
    " Peep": 9875,
    " Pass": 9876,
    " Marco": 9877,
    " Louie": 9878,
    " Jonathan": 9879,
    " Jeremy": 9880,
    " Jasmine": 9881,
    " Fork": 9882,
    " Dash": 9883,
    " Crusty": 9884,
    " Choo": 9885,
    " Cats": 9886,
    " Cate": 9887,
    " Cake": 9888,
    " Bess": 9889,
    " Albert": 9890,
    " Ar": 9891,
    "zzle": 9892,
    "vering": 9893,
    "uster": 9894,
    "unior": 9895,
    "ulf": 9896,
    "two": 9897,
    "smelling": 9898,
    "scot": 9899,
    "saw": 9900,
    "ruct": 9901,
    "ridge": 9902,
    "pop": 9903,
    "oured": 9904,
    "orsie": 9905,
    "ooke": 9906,
    "nda": 9907,
    "lie": 9908,
    "ivia": 9909,
    "iliar": 9910,
    "ilar": 9911,
    "how": 9912,
    "gar": 9913,
    "epeat": 9914,
    "enses": 9915,
    "els": 9916,
    "dia": 9917,
    "cutter": 9918,
    "colored": 9919,
    "asured": 9920,
    "arning": 9921,
    "arney": 9922,
    "antern": 9923,
    "amiliar": 9924,
    "abella": 9925,
    "Yesterday": 9926,
    "Velvet": 9927,
    "Sweet": 9928,
    "Surrender": 9929,
    "Ring": 9930,
    "Rabbit": 9931,
    "Over": 9932,
    "Matilda": 9933,
    "Laura": 9934,
    "Ice": 9935,
    "Fiona": 9936,
    "Everything": 9937,
    "Davey": 9938,
    "Daniel": 9939,
    "Bless": 9940,
    "Andrew": 9941,
    " woodcutter": 9942,
    " untangle": 9943,
    " unfamiliar": 9944,
    " treasured": 9945,
    " toothbrush": 9946,
    " tablecloth": 9947,
    " swimsuits": 9948,
    " stomping": 9949,
    " soggy": 9950,
    " slurp": 9951,
    " shields": 9952,
    " shaken": 9953,
    " scre": 9954,
    " sacks": 9955,
    " sipped": 9956,
    " signing": 9957,
    " routine": 9958,
    " rect": 9959,
    " quest": 9960,
    " pinches": 9961,
    " ninety": 9962,
    " nets": 9963,
    " motions": 9964,
    " magnificent": 9965,
    " lectures": 9966,
    " lever": 9967,
    " lace": 9968,
    " lim": 9969,
    " knobs": 9970,
    " keen": 9971,
    " joyfully": 9972,
    " introducing": 9973,
    " injured": 9974,
    " horror": 9975,
    " headache": 9976,
    " hardest": 9977,
    " gulped": 9978,
    " guitars": 9979,
    " glimmering": 9980,
    " furious": 9981,
    " flavour": 9982,
    " flashlights": 9983,
    " flick": 9984,
    " earrings": 9985,
    " ducklings": 9986,
    " disagre": 9987,
    " deserves": 9988,
    " deciding": 9989,
    " completing": 9990,
    " combs": 9991,
    " chatted": 9992,
    " challenges": 9993,
    " calmer": 9994,
    " brightened": 9995,
    " boil": 9996,
    " blush": 9997,
    " attaching": 9998,
    " access": 9999
}